{
  "version": "1.0",
  "truncation": null,
  "padding": null,
  "added_tokens": [
    {
      "id": 0,
      "content": "[PAD]",
      "single_word": false,
      "lstrip": false,
      "rstrip": false,
      "normalized": false,
      "special": true
    },
    {
      "id": 1,
      "content": "[UNK]",
      "single_word": false,
      "lstrip": false,
      "rstrip": false,
      "normalized": false,
      "special": true
    },
    {
      "id": 2,
      "content": "[CLS]",
      "single_word": false,
      "lstrip": false,
      "rstrip": false,
      "normalized": false,
      "special": true
    },
    {
      "id": 3,
      "content": "[SEP]",
      "single_word": false,
      "lstrip": false,
      "rstrip": false,
      "normalized": false,
      "special": true
    },
    {
      "id": 4,
      "content": "[MASK]",
      "single_word": false,
      "lstrip": false,
      "rstrip": false,
      "normalized": false,
      "special": true
    }
  ],
  "normalizer": null,
  "pre_tokenizer": {
    "type": "Whitespace"
  },
  "post_processor": null,
  "decoder": null,
  "model": {
    "type": "WordPiece",
    "unk_token": "[UNK]",
    "continuing_subword_prefix": "##",
    "max_input_chars_per_word": 100,
    "vocab": {
      "[PAD]": 0,
      "[UNK]": 1,
      "[CLS]": 2,
      "[SEP]": 3,
      "[MASK]": 4,
      "!": 5,
      "\"": 6,
      "#": 7,
      "$": 8,
      "%": 9,
      "&": 10,
      "'": 11,
      "(": 12,
      ")": 13,
      "*": 14,
      "+": 15,
      ",": 16,
      "-": 17,
      ".": 18,
      "/": 19,
      "0": 20,
      "1": 21,
      "2": 22,
      "3": 23,
      "4": 24,
      "5": 25,
      "6": 26,
      "7": 27,
      "8": 28,
      "9": 29,
      ":": 30,
      ";": 31,
      "<": 32,
      "=": 33,
      ">": 34,
      "?": 35,
      "@": 36,
      "A": 37,
      "B": 38,
      "C": 39,
      "D": 40,
      "E": 41,
      "F": 42,
      "G": 43,
      "H": 44,
      "I": 45,
      "J": 46,
      "K": 47,
      "L": 48,
      "M": 49,
      "N": 50,
      "O": 51,
      "P": 52,
      "Q": 53,
      "R": 54,
      "S": 55,
      "T": 56,
      "U": 57,
      "V": 58,
      "W": 59,
      "X": 60,
      "Y": 61,
      "Z": 62,
      "[": 63,
      "\\": 64,
      "]": 65,
      "^": 66,
      "_": 67,
      "`": 68,
      "a": 69,
      "b": 70,
      "c": 71,
      "d": 72,
      "e": 73,
      "f": 74,
      "g": 75,
      "h": 76,
      "i": 77,
      "j": 78,
      "k": 79,
      "l": 80,
      "m": 81,
      "n": 82,
      "o": 83,
      "p": 84,
      "q": 85,
      "r": 86,
      "s": 87,
      "t": 88,
      "u": 89,
      "v": 90,
      "w": 91,
      "x": 92,
      "y": 93,
      "z": 94,
      "{": 95,
      "|": 96,
      "}": 97,
      "~": 98,
      "": 99,
      "": 100,
      "": 101,
      "": 102,
      "": 103,
      "£": 104,
      "¥": 105,
      "§": 106,
      "©": 107,
      "«": 108,
      "­": 109,
      "®": 110,
      "°": 111,
      "²": 112,
      "µ": 113,
      "·": 114,
      "»": 115,
      "½": 116,
      "¿": 117,
      "Á": 118,
      "Ç": 119,
      "É": 120,
      "Ö": 121,
      "×": 122,
      "Ø": 123,
      "ß": 124,
      "à": 125,
      "á": 126,
      "â": 127,
      "ä": 128,
      "å": 129,
      "æ": 130,
      "ç": 131,
      "è": 132,
      "é": 133,
      "ê": 134,
      "ë": 135,
      "í": 136,
      "ï": 137,
      "ñ": 138,
      "ò": 139,
      "ó": 140,
      "ô": 141,
      "ö": 142,
      "ø": 143,
      "ú": 144,
      "ü": 145,
      "ā": 146,
      "ć": 147,
      "Č": 148,
      "č": 149,
      "Đ": 150,
      "Ł": 151,
      "ń": 152,
      "ō": 153,
      "ś": 154,
      "š": 155,
      "ų": 156,
      "ž": 157,
      "ɛ": 158,
      "́": 159,
      "Ε": 160,
      "ά": 161,
      "η": 162,
      "ι": 163,
      "κ": 164,
      "λ": 165,
      "ν": 166,
      "А": 167,
      "Б": 168,
      "К": 169,
      "М": 170,
      "П": 171,
      "Р": 172,
      "С": 173,
      "Т": 174,
      "У": 175,
      "а": 176,
      "в": 177,
      "г": 178,
      "д": 179,
      "е": 180,
      "з": 181,
      "и": 182,
      "й": 183,
      "к": 184,
      "л": 185,
      "н": 186,
      "о": 187,
      "п": 188,
      "р": 189,
      "с": 190,
      "т": 191,
      "у": 192,
      "ц": 193,
      "ч": 194,
      "ъ": 195,
      "ы": 196,
      "ь": 197,
      "і": 198,
      "ї": 199,
      "ա": 200,
      "ե": 201,
      "հ": 202,
      "յ": 203,
      "ն": 204,
      "ր": 205,
      "ב": 206,
      "י": 207,
      "ע": 208,
      "ר": 209,
      "ת": 210,
      "أ": 211,
      "ا": 212,
      "ب": 213,
      "ت": 214,
      "ح": 215,
      "د": 216,
      "ر": 217,
      "س": 218,
      "ط": 219,
      "ع": 220,
      "ف": 221,
      "ق": 222,
      "ك": 223,
      "ل": 224,
      "م": 225,
      "ن": 226,
      "ه": 227,
      "و": 228,
      "ي": 229,
      "َ": 230,
      "ّ": 231,
      "ْ": 232,
      "پ": 233,
      "ښ": 234,
      "ک": 235,
      "ی": 236,
      "ە": 237,
      "ठ": 238,
      "द": 239,
      "न": 240,
      "म": 241,
      "र": 242,
      "ह": 243,
      "ा": 244,
      "ि": 245,
      "ी": 246,
      "्": 247,
      "ং": 248,
      "ব": 249,
      "ল": 250,
      "া": 251,
      "ਜ": 252,
      "ਪ": 253,
      "ਬ": 254,
      "ਾ": 255,
      "ੀ": 256,
      "ੰ": 257,
      "ગ": 258,
      "જ": 259,
      "ત": 260,
      "ર": 261,
      "ા": 262,
      "ી": 263,
      "ુ": 264,
      "த": 265,
      "ம": 266,
      "ழ": 267,
      "ி": 268,
      "்": 269,
      "ං": 270,
      "ල": 271,
      "ස": 272,
      "හ": 273,
      "ි": 274,
      "ท": 275,
      "ภ": 276,
      "ย": 277,
      "ษ": 278,
      "า": 279,
      "ไ": 280,
      "န": 281,
      "ဘ": 282,
      "မ": 283,
      "သ": 284,
      "ာ": 285,
      "်": 286,
      "ြ": 287,
      "ა": 288,
      "ე": 289,
      "თ": 290,
      "ი": 291,
      "ლ": 292,
      "ნ": 293,
      "რ": 294,
      "უ": 295,
      "ქ": 296,
      "ማ": 297,
      "ር": 298,
      "ኛ": 299,
      "አ": 300,
      "ḷ": 301,
      "ṁ": 302,
      "ṭ": 303,
      "ế": 304,
      "ệ": 305,
      "​": 306,
      "‎": 307,
      "‐": 308,
      "–": 309,
      "—": 310,
      "―": 311,
      "‘": 312,
      "’": 313,
      "“": 314,
      "”": 315,
      "•": 316,
      "…": 317,
      "′": 318,
      "″": 319,
      "€": 320,
      "™": 321,
      "⅜": 322,
      "−": 323,
      "≈": 324,
      "≠": 325,
      "≥": 326,
      "►": 327,
      "◊": 328,
      "●": 329,
      "★": 330,
      "♡": 331,
      "♦": 332,
      "⛽": 333,
      "✌": 334,
      "❤": 335,
      "ⴰ": 336,
      "ⴱ": 337,
      "ⴻ": 338,
      "ⵄ": 339,
      "ⵉ": 340,
      "ⵍ": 341,
      "ⵎ": 342,
      "ⵏ": 343,
      "ⵓ": 344,
      "ⵙ": 345,
      "ⵜ": 346,
      "ⵟ": 347,
      "ⵡ": 348,
      "中": 349,
      "享": 350,
      "体": 351,
      "分": 352,
      "友": 353,
      "台": 354,
      "學": 355,
      "弁": 356,
      "教": 357,
      "文": 358,
      "日": 359,
      "朋": 360,
      "本": 361,
      "灣": 362,
      "简": 363,
      "系": 364,
      "給": 365,
      "繁": 366,
      "語": 367,
      "面": 368,
      "頁": 369,
      "駅": 370,
      "體": 371,
      "국": 372,
      "어": 373,
      "한": 374,
      "️": 375,
      "（": 376,
      "）": 377,
      "🇸": 378,
      "🇺": 379,
      "🍁": 380,
      "🍴": 381,
      "🐒": 382,
      "🐘": 383,
      "🐧": 384,
      "👫": 385,
      "💀": 386,
      "💖": 387,
      "💜": 388,
      "🔥": 389,
      "😅": 390,
      "😉": 391,
      "😍": 392,
      "🙂": 393,
      "🚃": 394,
      "🦁": 395,
      "##u": 396,
      "##s": 397,
      "##h": 398,
      "##_": 399,
      "##e": 400,
      "##a": 401,
      "##p": 402,
      "##t": 403,
      "##l": 404,
      "##0": 405,
      "##r": 406,
      "##d": 407,
      "##i": 408,
      "##c": 409,
      "##m": 410,
      "##n": 411,
      "##v": 412,
      "##y": 413,
      "##o": 414,
      "##x": 415,
      "##f": 416,
      "##g": 417,
      "##F": 418,
      "##C": 419,
      "##S": 420,
      "##V": 421,
      "##k": 422,
      "##O": 423,
      "##L": 424,
      "##I": 425,
      "##D": 426,
      "##A": 427,
      "##Y": 428,
      "##é": 429,
      "##z": 430,
      "##2": 431,
      "##9": 432,
      "##5": 433,
      "##1": 434,
      "##â": 435,
      "##8": 436,
      "##7": 437,
      "##q": 438,
      "##b": 439,
      "##T": 440,
      "##w": 441,
      "##R": 442,
      "##3": 443,
      "##G": 444,
      "##P": 445,
      "##J": 446,
      "##6": 447,
      "##K": 448,
      "##W": 449,
      "##B": 450,
      "##U": 451,
      "##E": 452,
      "##M": 453,
      "##í": 454,
      "##—": 455,
      "##-": 456,
      "##j": 457,
      "##H": 458,
      "##¿": 459,
      "##4": 460,
      "##,": 461,
      "##N": 462,
      "##/": 463,
      "##ó": 464,
      "##‘": 465,
      "##.": 466,
      "##?": 467,
      "##Z": 468,
      "##ம": 469,
      "##ி": 470,
      "##ழ": 471,
      "##்": 472,
      "##=": 473,
      "##+": 474,
      "##ç": 475,
      "##ø": 476,
      "##ر": 477,
      "##ی": 478,
      "##X": 479,
      "##−": 480,
      "##á": 481,
      "##!": 482,
      "##\"": 483,
      "##)": 484,
      "##\\": 485,
      "##[": 486,
      "##ü": 487,
      "##'": 488,
      "##:": 489,
      "##Q": 490,
      "##(": 491,
      "##č": 492,
      "##е": 493,
      "##л": 494,
      "##а": 495,
      "##р": 496,
      "##у": 497,
      "##с": 498,
      "##к": 499,
      "##і": 500,
      "##ä": 501,
      "##@": 502,
      "##$": 503,
      "##ë": 504,
      "##": 505,
      "##🇸": 506,
      "##’": 507,
      "##…": 508,
      "##弁": 509,
      "##ñ": 510,
      "##ا": 511,
      "##س": 512,
      "##<": 513,
      "##;": 514,
      "##ō": 515,
      "##*": 516,
      "##َ": 517,
      "##ب": 518,
      "##ي": 519,
      "##ْ": 520,
      "##|": 521,
      "##ö": 522,
      "##♦": 523,
      "##◊": 524,
      "##“": 525,
      "##è": 526,
      "##”": 527,
      "##>": 528,
      "##`": 529,
      "##&": 530,
      "##́": 531,
      "##в": 532,
      "##и": 533,
      "##ч": 534,
      "##ú": 535,
      "##و": 536,
      "##ن": 537,
      "##ّ": 538,
      "##ြ": 539,
      "##န": 540,
      "##်": 541,
      "##မ": 542,
      "##ာ": 543,
      "##ဘ": 544,
      "##သ": 545,
      "##體": 546,
      "##中": 547,
      "##文": 548,
      "##語": 549,
      "##系": 550,
      "##]": 551,
      "##£": 552,
      "###": 553,
      "##ệ": 554,
      "##ś": 555,
      "##о": 556,
      "##ц": 557,
      "##й": 558,
      "##{": 559,
      "##ï": 560,
      "##​": 561,
      "##–": 562,
      "##ع": 563,
      "##ط": 564,
      "##%": 565,
      "##국": 566,
      "##어": 567,
      "##ê": 568,
      "##🐘": 569,
      "##🐒": 570,
      "##🦁": 571,
      "##ە": 572,
      "##د": 573,
      "##à": 574,
      "##ි": 575,
      "##ං": 576,
      "##හ": 577,
      "##ල": 578,
      "##ъ": 579,
      "##г": 580,
      "##É": 581,
      "##ુ": 582,
      "##જ": 583,
      "##ર": 584,
      "##ા": 585,
      "##ત": 586,
      "##ી": 587,
      "##ل": 588,
      "##ه": 589,
      "##ß": 590,
      "##ų": 591,
      "##ô": 592,
      "##🚃": 593,
      "##🍴": 594,
      "##❤": 595,
      "##ế": 596,
      "##ń": 597,
      "##д": 598,
      "##н": 599,
      "##灣": 600,
      "##ž": 601,
      "##т": 602,
      "##ї": 603,
      "##ь": 604,
      "##ੰ": 605,
      "##ਜ": 606,
      "##ਾ": 607,
      "##ਬ": 608,
      "##ੀ": 609,
      "##أ": 610,
      "##ح": 611,
      "##م": 612,
      "##ā": 613,
      "##ḷ": 614,
      "##ṁ": 615,
      "##本": 616,
      "##Ö": 617,
      "##ы": 618,
      "##з": 619,
      "##š": 620,
      "##≥": 621,
      "##र": 622,
      "##ा": 623,
      "##ठ": 624,
      "##ी": 625,
      "##ⵓ": 626,
      "##ⵏ": 627,
      "##ⵉ": 628,
      "##ⵙ": 629,
      "##‎": 630,
      "##ა": 631,
      "##რ": 632,
      "##თ": 633,
      "##უ": 634,
      "##ლ": 635,
      "##ი": 636,
      "##}": 637,
      "##ա": 638,
      "##յ": 639,
      "##ե": 640,
      "##ր": 641,
      "##ն": 642,
      "##ق": 643,
      "##ማ": 644,
      "##ር": 645,
      "##ኛ": 646,
      "##頁": 647,
      "##面": 648,
      "##า": 649,
      "##ษ": 650,
      "##ไ": 651,
      "##ท": 652,
      "##ย": 653,
      "##~": 654,
      "##ნ": 655,
      "##æ": 656,
      "##教": 657,
      "##學": 658,
      "##ⴻ": 659,
      "##ⵄ": 660,
      "##ⵜ": 661,
      "##ⴱ": 662,
      "##享": 663,
      "##給": 664,
      "##朋": 665,
      "##友": 666,
      "##ښ": 667,
      "##ت": 668,
      "##体": 669,
      "##ב": 670,
      "##ר": 671,
      "##י": 672,
      "##ת": 673,
      "##å": 674,
      "##ि": 675,
      "##न": 676,
      "##्": 677,
      "##द": 678,
      "##ć": 679,
      "##п": 680,
      "##ɛ": 681,
      "##ṭ": 682,
      "##^": 683,
      "##ⵟ": 684,
      "##া": 685,
      "##ং": 686,
      "##ল": 687,
      "##ⵡ": 688,
      "##ⴰ": 689,
      "##λ": 690,
      "##η": 691,
      "##ν": 692,
      "##ι": 693,
      "##κ": 694,
      "##ά": 695,
      "##°": 696,
      "th": 697,
      "##er": 698,
      "##in": 699,
      "the": 700,
      "##on": 701,
      "##at": 702,
      "##en": 703,
      "##es": 704,
      "##or": 705,
      "##ed": 706,
      "##nd": 707,
      "##ing": 708,
      "##ar": 709,
      "##an": 710,
      "##ou": 711,
      "to": 712,
      "##al": 713,
      "##it": 714,
      "of": 715,
      "in": 716,
      "##is": 717,
      "##ic": 718,
      "and": 719,
      "##as": 720,
      "##re": 721,
      "##om": 722,
      "##ion": 723,
      "##le": 724,
      "##ent": 725,
      "##el": 726,
      "##il": 727,
      "##st": 728,
      "##et": 729,
      "##ec": 730,
      "##ot": 731,
      "##ac": 732,
      "##id": 733,
      "##ly": 734,
      "##ut": 735,
      "that": 736,
      "is": 737,
      "##ve": 738,
      "on": 739,
      "##ro": 740,
      "##ay": 741,
      "Th": 742,
      "for": 743,
      "wh": 744,
      "##ig": 745,
      "be": 746,
      "##ow": 747,
      "re": 748,
      "##ad": 749,
      "##am": 750,
      "##ur": 751,
      "##ol": 752,
      "st": 753,
      "##ers": 754,
      "it": 755,
      "##im": 756,
      "##ir": 757,
      "##ith": 758,
      "##se": 759,
      "##ver": 760,
      "##ation": 761,
      "##ch": 762,
      "as": 763,
      "##ter": 764,
      "al": 765,
      "The": 766,
      "with": 767,
      "##th": 768,
      "an": 769,
      "##ce": 770,
      "##ere": 771,
      "con": 772,
      "##ill": 773,
      "you": 774,
      "##est": 775,
      "ha": 776,
      "##ld": 777,
      "##ul": 778,
      "was": 779,
      "##em": 780,
      "com": 781,
      "##ess": 782,
      "at": 783,
      "##ct": 784,
      "##ag": 785,
      "are": 786,
      "##ear": 787,
      "##um": 788,
      "##pp": 789,
      "pro": 790,
      "##igh": 791,
      "##ak": 792,
      "##ain": 793,
      "##iv": 794,
      "##ts": 795,
      "##ate": 796,
      "##us": 797,
      "sh": 798,
      "ex": 799,
      "fr": 800,
      "##if": 801,
      "he": 802,
      "##ew": 803,
      "##op": 804,
      "have": 805,
      "##ore": 806,
      "not": 807,
      "##ab": 808,
      "or": 809,
      "##ity": 810,
      "##un": 811,
      "##ould": 812,
      "##od": 813,
      "we": 814,
      "##os": 815,
      "su": 816,
      "##ment": 817,
      "##and": 818,
      "this": 819,
      "##ies": 820,
      "##oc": 821,
      "##ist": 822,
      "ch": 823,
      "de": 824,
      "by": 825,
      "from": 826,
      "##ive": 827,
      "##ort": 828,
      "pr": 829,
      "tr": 830,
      "##ally": 831,
      "se": 832,
      "##art": 833,
      "sa": 834,
      "##ust": 835,
      "##ant": 836,
      "ab": 837,
      "##ack": 838,
      "##ap": 839,
      "##ard": 840,
      "##ost": 841,
      "##ud": 842,
      "##ect": 843,
      "has": 844,
      "##ight": 845,
      "##all": 846,
      "##ome": 847,
      "##gh": 848,
      "go": 849,
      "pl": 850,
      "##out": 851,
      "wor": 852,
      "sp": 853,
      "do": 854,
      "##ik": 855,
      "##end": 856,
      "20": 857,
      "##ast": 858,
      "##ell": 859,
      "his": 860,
      "but": 861,
      "##ok": 862,
      "##ib": 863,
      "all": 864,
      "they": 865,
      "can": 866,
      "##ich": 867,
      "said": 868,
      "will": 869,
      "##ff": 870,
      "le": 871,
      "##our": 872,
      "##nt": 873,
      "comp": 874,
      "##ough": 875,
      "##ge": 876,
      "##ue": 877,
      "out": 878,
      "who": 879,
      "##ans": 880,
      "up": 881,
      "more": 882,
      "##act": 883,
      "##ial": 884,
      "ar": 885,
      "##her": 886,
      "##ong": 887,
      "##one": 888,
      "int": 889,
      "##ep": 890,
      "##ound": 891,
      "their": 892,
      "In": 893,
      "cont": 894,
      "##ous": 895,
      "##ure": 896,
      "ad": 897,
      "res": 898,
      "St": 899,
      "##ip": 900,
      "ne": 901,
      "##ame": 902,
      "##ions": 903,
      "##age": 904,
      "##ence": 905,
      "##mp": 906,
      "en": 907,
      "about": 908,
      "us": 909,
      "##ated": 910,
      "one": 911,
      "It": 912,
      "##ice": 913,
      "me": 914,
      "##ub": 915,
      "##ine": 916,
      "would": 917,
      "which": 918,
      "##ra": 919,
      "##ely": 920,
      "so": 921,
      "exp": 922,
      "year": 923,
      "##ie": 924,
      "##ake": 925,
      "cl": 926,
      "##iz": 927,
      "##og": 928,
      "##ind": 929,
      "were": 930,
      "lik": 931,
      "##ia": 932,
      "off": 933,
      "##ther": 934,
      "been": 935,
      "##cc": 936,
      "per": 937,
      "##ign": 938,
      "##ide": 939,
      "##ime": 940,
      "had": 941,
      "ag": 942,
      "##ach": 943,
      "##au": 944,
      "un": 945,
      "##so": 946,
      "##ook": 947,
      "##ary": 948,
      "pe": 949,
      "inc": 950,
      "##qu": 951,
      "##ber": 952,
      "ev": 953,
      "dis": 954,
      "than": 955,
      "rec": 956,
      "man": 957,
      "some": 958,
      "##ays": 959,
      "##able": 960,
      "##mer": 961,
      "Wh": 962,
      "##ry": 963,
      "##ail": 964,
      "201": 965,
      "##ose": 966,
      "##ire": 967,
      "there": 968,
      "##ian": 969,
      "##ace": 970,
      "##ical": 971,
      "##ople": 972,
      "##av": 973,
      "rep": 974,
      "##ish": 975,
      "##ord": 976,
      "Ch": 977,
      "work": 978,
      "new": 979,
      "sc": 980,
      "##ations": 981,
      "like": 982,
      "##ens": 983,
      "app": 984,
      "part": 985,
      "over": 986,
      "##lic": 987,
      "qu": 988,
      "##pt": 989,
      "##fer": 990,
      "them": 991,
      "your": 992,
      "people": 993,
      "my": 994,
      "##ount": 995,
      "gr": 996,
      "get": 997,
      "##ile": 998,
      "bec": 999,
      "##oin": 1000,
      "##ite": 1001,
      "also": 1002,
      "if": 1003,
      "##own": 1004,
      "when": 1005,
      "time": 1006,
      "its": 1007,
      "just": 1008,
      "what": 1009,
      "##ink": 1010,
      "##ark": 1011,
      "##ass": 1012,
      "##ob": 1013,
      "##ick": 1014,
      "##fter": 1015,
      "any": 1016,
      "her": 1017,
      "imp": 1018,
      "other": 1019,
      "te": 1020,
      "##ult": 1021,
      "tw": 1022,
      "##ase": 1023,
      ".”": 1024,
      "##are": 1025,
      "He": 1026,
      "We": 1027,
      "##du": 1028,
      "##erv": 1029,
      "no": 1030,
      "##ents": 1031,
      "kn": 1032,
      "into": 1033,
      "inter": 1034,
      "##ond": 1035,
      "pol": 1036,
      "##ance": 1037,
      "##ory": 1038,
      "##ree": 1039,
      "str": 1040,
      "##ors": 1041,
      "##orm": 1042,
      "##reat": 1043,
      "##ings": 1044,
      "our": 1045,
      "19": 1046,
      "play": 1047,
      "fir": 1048,
      "##00": 1049,
      "##ition": 1050,
      "##ause": 1051,
      "##ates": 1052,
      "##ild": 1053,
      "This": 1054,
      ",”": 1055,
      "##wn": 1056,
      "##per": 1057,
      "##ction": 1058,
      "cons": 1059,
      "##enc": 1060,
      "##lo": 1061,
      "des": 1062,
      "But": 1063,
      "##ress": 1064,
      "##very": 1065,
      "pre": 1066,
      "after": 1067,
      "acc": 1068,
      "##ang": 1069,
      "##ery": 1070,
      "##ied": 1071,
      "how": 1072,
      "bet": 1073,
      "##ons": 1074,
      "only": 1075,
      "##vel": 1076,
      "##iss": 1077,
      "most": 1078,
      "cr": 1079,
      ".\"": 1080,
      "she": 1081,
      "##ious": 1082,
      "##ock": 1083,
      "Tr": 1084,
      "could": 1085,
      "##amp": 1086,
      "##oll": 1087,
      "first": 1088,
      "rel": 1089,
      "att": 1090,
      "two": 1091,
      "##ft": 1092,
      "Al": 1093,
      "co": 1094,
      "dif": 1095,
      "##itt": 1096,
      "##ek": 1097,
      "him": 1098,
      "##ru": 1099,
      "And": 1100,
      "##nder": 1101,
      "##aw": 1102,
      "Sh": 1103,
      "dec": 1104,
      "need": 1105,
      "##uch": 1106,
      "##ade": 1107,
      "##hing": 1108,
      "am": 1109,
      "##ual": 1110,
      "did": 1111,
      "##ey": 1112,
      "act": 1113,
      "Un": 1114,
      "fe": 1115,
      "back": 1116,
      "high": 1117,
      "##ov": 1118,
      "because": 1119,
      "bl": 1120,
      "##form": 1121,
      "id": 1122,
      "##lud": 1123,
      "##ific": 1124,
      "think": 1125,
      "As": 1126,
      "##ning": 1127,
      "##rough": 1128,
      "add": 1129,
      "supp": 1130,
      "eff": 1131,
      "##we": 1132,
      "##ublic": 1133,
      "look": 1134,
      "under": 1135,
      "##eral": 1136,
      "##ict": 1137,
      "comm": 1138,
      "stud": 1139,
      "know": 1140,
      "much": 1141,
      "##ert": 1142,
      "don": 1143,
      "##ove": 1144,
      "years": 1145,
      "way": 1146,
      "use": 1147,
      "may": 1148,
      "##ump": 1149,
      ",\"": 1150,
      "every": 1151,
      "wr": 1152,
      "make": 1153,
      "want": 1154,
      "##man": 1155,
      "now": 1156,
      "##ater": 1157,
      "very": 1158,
      "##oup": 1159,
      "Amer": 1160,
      "pos": 1161,
      "##old": 1162,
      "differ": 1163,
      "Americ": 1164,
      "again": 1165,
      "team": 1166,
      "then": 1167,
      "##day": 1168,
      "##ting": 1169,
      "should": 1170,
      "##arg": 1171,
      "##oth": 1172,
      "poin": 1173,
      "ind": 1174,
      "these": 1175,
      "min": 1176,
      "##ty": 1177,
      "even": 1178,
      "##les": 1179,
      "##atch": 1180,
      "bu": 1181,
      "last": 1182,
      "say": 1183,
      "##ful": 1184,
      "##elf": 1185,
      "sec": 1186,
      "On": 1187,
      "def": 1188,
      "##ank": 1189,
      "##olog": 1190,
      "includ": 1191,
      "##ident": 1192,
      "##gr": 1193,
      "inv": 1194,
      ").": 1195,
      "being": 1196,
      "New": 1197,
      "##ise": 1198,
      "##xt": 1199,
      "br": 1200,
      "You": 1201,
      "##ech": 1202,
      "ve": 1203,
      "hel": 1204,
      "##ason": 1205,
      "down": 1206,
      "many": 1207,
      "see": 1208,
      "call": 1209,
      "those": 1210,
      "If": 1211,
      "##ating": 1212,
      "rem": 1213,
      "##iew": 1214,
      "##fore": 1215,
      "bel": 1216,
      "well": 1217,
      "pres": 1218,
      "Fr": 1219,
      "##ited": 1220,
      "end": 1221,
      "##ood": 1222,
      "where": 1223,
      "##ased": 1224,
      "produ": 1225,
      "##yp": 1226,
      "##rop": 1227,
      "##ower": 1228,
      "##ced": 1229,
      "does": 1230,
      "##ont": 1231,
      "ph": 1232,
      "ass": 1233,
      "##vern": 1234,
      "##ics": 1235,
      "through": 1236,
      "going": 1237,
      "ac": 1238,
      "##urn": 1239,
      "gen": 1240,
      "##und": 1241,
      "long": 1242,
      "reg": 1243,
      "##ath": 1244,
      "##ix": 1245,
      "##aking": 1246,
      "dr": 1247,
      "##lect": 1248,
      "sm": 1249,
      "##ities": 1250,
      "prob": 1251,
      "##other": 1252,
      "start": 1253,
      "##ually": 1254,
      "##oun": 1255,
      "##ism": 1256,
      "##ments": 1257,
      "##ational": 1258,
      "week": 1259,
      "##res": 1260,
      "##ange": 1261,
      "##ible": 1262,
      "mon": 1263,
      "##urr": 1264,
      "##ives": 1265,
      "##ues": 1266,
      "##ily": 1267,
      "10": 1268,
      "count": 1269,
      "##ince": 1270,
      "##land": 1271,
      "##row": 1272,
      "##ton": 1273,
      "##ility": 1274,
      "),": 1275,
      "##ject": 1276,
      "##omet": 1277,
      "show": 1278,
      "sim": 1279,
      "200": 1280,
      "Ar": 1281,
      "such": 1282,
      "sy": 1283,
      "report": 1284,
      "own": 1285,
      "##ative": 1286,
      "##ead": 1287,
      "##ever": 1288,
      "##ner": 1289,
      "##alk": 1290,
      "disc": 1291,
      "gu": 1292,
      "There": 1293,
      "##uring": 1294,
      "mem": 1295,
      "An": 1296,
      "comple": 1297,
      "##lin": 1298,
      "##ween": 1299,
      "##earch": 1300,
      "Trump": 1301,
      "##ys": 1302,
      "##ivers": 1303,
      "prov": 1304,
      "Is": 1305,
      "still": 1306,
      "##ier": 1307,
      "##air": 1308,
      "##illion": 1309,
      "between": 1310,
      "ear": 1311,
      "##als": 1312,
      "bo": 1313,
      "For": 1314,
      "##uc": 1315,
      "before": 1316,
      "##io": 1317,
      "Br": 1318,
      "##ork": 1319,
      "fl": 1320,
      "##rib": 1321,
      "##ward": 1322,
      "##imes": 1323,
      "says": 1324,
      "##ets": 1325,
      "good": 1326,
      "sub": 1327,
      "##uss": 1328,
      "govern": 1329,
      "game": 1330,
      "##ently": 1331,
      "##cent": 1332,
      "##ement": 1333,
      "ob": 1334,
      "though": 1335,
      "pers": 1336,
      "##led": 1337,
      "really": 1338,
      "##der": 1339,
      "That": 1340,
      "inst": 1341,
      "##ool": 1342,
      "group": 1343,
      "world": 1344,
      "here": 1345,
      "find": 1346,
      "##ces": 1347,
      "Mar": 1348,
      "fin": 1349,
      "read": 1350,
      "##ular": 1351,
      "three": 1352,
      "im": 1353,
      "op": 1354,
      "##ah": 1355,
      "##its": 1356,
      "made": 1357,
      "found": 1358,
      "compan": 1359,
      "help": 1360,
      "So": 1361,
      "take": 1362,
      "spec": 1363,
      "offic": 1364,
      "##ros": 1365,
      "##ven": 1366,
      "top": 1367,
      "##ists": 1368,
      "used": 1369,
      "right": 1370,
      "ter": 1371,
      "They": 1372,
      "against": 1373,
      "sur": 1374,
      "##ether": 1375,
      "##ling": 1376,
      "##ms": 1377,
      "while": 1378,
      "##ying": 1379,
      "hand": 1380,
      "##orn": 1381,
      "Le": 1382,
      "sign": 1383,
      "Te": 1384,
      "##ax": 1385,
      "support": 1386,
      "same": 1387,
      "somet": 1388,
      "resp": 1389,
      "med": 1390,
      "set": 1391,
      "##tern": 1392,
      "##ese": 1393,
      "design": 1394,
      "##ize": 1395,
      "Re": 1396,
      "ro": 1397,
      "sch": 1398,
      "lead": 1399,
      "##stem": 1400,
      "real": 1401,
      "col": 1402,
      "##ife": 1403,
      "##arr": 1404,
      "public": 1405,
      "##way": 1406,
      "##ather": 1407,
      "ext": 1408,
      "iss": 1409,
      "##ted": 1410,
      "big": 1411,
      "ide": 1412,
      "##iel": 1413,
      "run": 1414,
      "##ollow": 1415,
      "around": 1416,
      "wom": 1417,
      "##sp": 1418,
      "cor": 1419,
      "too": 1420,
      "##gg": 1421,
      "How": 1422,
      "test": 1423,
      "##ash": 1424,
      "requ": 1425,
      "dep": 1426,
      "sl": 1427,
      "fact": 1428,
      "##up": 1429,
      "aut": 1430,
      "lot": 1431,
      "Sp": 1432,
      "law": 1433,
      "mod": 1434,
      "trans": 1435,
      "percent": 1436,
      "##ience": 1437,
      "##ator": 1438,
      "##ically": 1439,
      "num": 1440,
      "##aj": 1441,
      "##ull": 1442,
      "##ale": 1443,
      "day": 1444,
      "##ures": 1445,
      "000": 1446,
      "em": 1447,
      "##lear": 1448,
      "serv": 1449,
      "##ution": 1450,
      "typ": 1451,
      "##ects": 1452,
      "head": 1453,
      "##ames": 1454,
      "##akes": 1455,
      "hear": 1456,
      "##cept": 1457,
      "mark": 1458,
      "state": 1459,
      "month": 1460,
      "##ient": 1461,
      "##ially": 1462,
      "government": 1463,
      "fun": 1464,
      "##rol": 1465,
      "conf": 1466,
      "system": 1467,
      "##ng": 1468,
      "contin": 1469,
      "exper": 1470,
      "##gan": 1471,
      "##ants": 1472,
      "ask": 1473,
      "##ush": 1474,
      "char": 1475,
      "el": 1476,
      "quest": 1477,
      "polit": 1478,
      "different": 1479,
      "belie": 1480,
      "person": 1481,
      "Com": 1482,
      "##ense": 1483,
      "rele": 1484,
      "happ": 1485,
      "both": 1486,
      "ret": 1487,
      "##con": 1488,
      "inf": 1489,
      "adv": 1490,
      "##alth": 1491,
      "##velop": 1492,
      "ser": 1493,
      "##ior": 1494,
      "No": 1495,
      "12": 1496,
      "fam": 1497,
      "win": 1498,
      "incre": 1499,
      "##read": 1500,
      "##oci": 1501,
      "few": 1502,
      "det": 1503,
      "put": 1504,
      "since": 1505,
      "cap": 1506,
      "##eep": 1507,
      "##ten": 1508,
      ".[": 1509,
      "##ars": 1510,
      "##ably": 1511,
      "When": 1512,
      "best": 1513,
      "cour": 1514,
      "##ouse": 1515,
      "##ider": 1516,
      "##thing": 1517,
      "##ized": 1518,
      "old": 1519,
      "##hip": 1520,
      "poss": 1521,
      "##ages": 1522,
      "emp": 1523,
      "##view": 1524,
      "cent": 1525,
      "##els": 1526,
      "##lish": 1527,
      "cost": 1528,
      "##ph": 1529,
      "##ision": 1530,
      "##ross": 1531,
      "##ency": 1532,
      "great": 1533,
      "##ave": 1534,
      "##ote": 1535,
      "av": 1536,
      "lib": 1537,
      "##irect": 1538,
      "par": 1539,
      "##ody": 1540,
      "expl": 1541,
      "cre": 1542,
      "might": 1543,
      "const": 1544,
      "##ee": 1545,
      "US": 1546,
      "follow": 1547,
      "##min": 1548,
      "another": 1549,
      "##ected": 1550,
      "##loy": 1551,
      "got": 1552,
      "##side": 1553,
      "##eng": 1554,
      "come": 1555,
      "develop": 1556,
      "art": 1557,
      "Bl": 1558,
      "##red": 1559,
      "told": 1560,
      "##ices": 1561,
      "What": 1562,
      "15": 1563,
      "during": 1564,
      "met": 1565,
      "##ene": 1566,
      "Ind": 1567,
      "ll": 1568,
      "power": 1569,
      "##ving": 1570,
      "##oh": 1571,
      "war": 1572,
      "##cess": 1573,
      "##orts": 1574,
      "spe": 1575,
      "American": 1576,
      "##ern": 1577,
      "##ording": 1578,
      "second": 1579,
      "##iving": 1580,
      "something": 1581,
      "less": 1582,
      "val": 1583,
      "things": 1584,
      "stand": 1585,
      "open": 1586,
      "research": 1587,
      "Chr": 1588,
      "import": 1589,
      "life": 1590,
      "pay": 1591,
      "red": 1592,
      "dem": 1593,
      "list": 1594,
      "stat": 1595,
      "each": 1596,
      "prof": 1597,
      "invest": 1598,
      "11": 1599,
      "##te": 1600,
      "##ases": 1601,
      "partic": 1602,
      "including": 1603,
      "proble": 1604,
      "Sc": 1605,
      "car": 1606,
      "far": 1607,
      "simp": 1608,
      "Ad": 1609,
      "##ait": 1610,
      "next": 1611,
      "hard": 1612,
      "small": 1613,
      "##med": 1614,
      "##oy": 1615,
      "commun": 1616,
      "##ology": 1617,
      "##ittle": 1618,
      "##ention": 1619,
      "At": 1620,
      "ent": 1621,
      "##ield": 1622,
      "18": 1623,
      "Pr": 1624,
      "better": 1625,
      "##ends": 1626,
      "effect": 1627,
      "##ata": 1628,
      "##uck": 1629,
      "##vers": 1630,
      "point": 1631,
      "--": 1632,
      "##ved": 1633,
      "##gin": 1634,
      "##att": 1635,
      "never": 1636,
      "##iver": 1637,
      "care": 1638,
      "##ves": 1639,
      "##uman": 1640,
      "job": 1641,
      "##dit": 1642,
      "level": 1643,
      "Rep": 1644,
      "##ric": 1645,
      "##ains": 1646,
      "Can": 1647,
      "sk": 1648,
      "thing": 1649,
      "##ute": 1650,
      "Team": 1651,
      "direct": 1652,
      "little": 1653,
      "main": 1654,
      "talk": 1655,
      "##ately": 1656,
      "##ained": 1657,
      "child": 1658,
      "##conom": 1659,
      "##oot": 1660,
      "conc": 1661,
      "##ights": 1662,
      "million": 1663,
      "tech": 1664,
      "##aim": 1665,
      "##ember": 1666,
      "##iven": 1667,
      "company": 1668,
      "Ph": 1669,
      "##inal": 1670,
      "##rem": 1671,
      "season": 1672,
      "She": 1673,
      "four": 1674,
      "school": 1675,
      "bre": 1676,
      "post": 1677,
      "##pr": 1678,
      "##vious": 1679,
      "##ared": 1680,
      "order": 1681,
      "clear": 1682,
      "turn": 1683,
      "##pl": 1684,
      "seem": 1685,
      "Man": 1686,
      "pass": 1687,
      "curr": 1688,
      "##atur": 1689,
      "##osed": 1690,
      "interest": 1691,
      "feel": 1692,
      "prot": 1693,
      "Pro": 1694,
      "loc": 1695,
      "##oss": 1696,
      "build": 1697,
      "##oub": 1698,
      "leg": 1699,
      "##oney": 1700,
      "without": 1701,
      "##ences": 1702,
      "##gram": 1703,
      "##bers": 1704,
      "##ways": 1705,
      "United": 1706,
      "opp": 1707,
      "ann": 1708,
      "arg": 1709,
      "##az": 1710,
      "##less": 1711,
      "##ively": 1712,
      "change": 1713,
      "left": 1714,
      "complex": 1715,
      "##ards": 1716,
      "book": 1717,
      "##ike": 1718,
      "home": 1719,
      "##ness": 1720,
      "##iness": 1721,
      "allow": 1722,
      "ele": 1723,
      "##anc": 1724,
      "##ann": 1725,
      "class": 1726,
      "Eu": 1727,
      "camp": 1728,
      "let": 1729,
      "##ital": 1730,
      "control": 1731,
      "number": 1732,
      "prom": 1733,
      "conserv": 1734,
      "pop": 1735,
      "country": 1736,
      "##ajor": 1737,
      "Con": 1738,
      "var": 1739,
      "##ians": 1740,
      "##orth": 1741,
      "One": 1742,
      "doesn": 1743,
      "using": 1744,
      "didn": 1745,
      "##ued": 1746,
      "##ina": 1747,
      "process": 1748,
      "appear": 1749,
      "past": 1750,
      "##aining": 1751,
      "place": 1752,
      "important": 1753,
      "aff": 1754,
      "fil": 1755,
      "##ised": 1756,
      "##ird": 1757,
      "##pped": 1758,
      "enough": 1759,
      "##ret": 1760,
      "##idence": 1761,
      "keep": 1762,
      "mov": 1763,
      "##line": 1764,
      "##ature": 1765,
      "case": 1766,
      "near": 1767,
      "##ev": 1768,
      "##acks": 1769,
      "##ks": 1770,
      "beh": 1771,
      "Pl": 1772,
      "based": 1773,
      "##int": 1774,
      "women": 1775,
      "bus": 1776,
      "dist": 1777,
      "eas": 1778,
      "##AS": 1779,
      "##ived": 1780,
      "##ode": 1781,
      "gl": 1782,
      "199": 1783,
      "non": 1784,
      "sing": 1785,
      "cert": 1786,
      "##ided": 1787,
      "Europ": 1788,
      "30": 1789,
      "money": 1790,
      "often": 1791,
      "##ety": 1792,
      "claim": 1793,
      "pur": 1794,
      "rest": 1795,
      "##leg": 1796,
      "##ands": 1797,
      "##ief": 1798,
      "product": 1799,
      "Gr": 1800,
      "won": 1801,
      "##arge": 1802,
      "##outh": 1803,
      "story": 1804,
      "arr": 1805,
      "Col": 1806,
      "##atic": 1807,
      "always": 1808,
      "program": 1809,
      "##ocr": 1810,
      "perform": 1811,
      "##ug": 1812,
      "##ified": 1813,
      "All": 1814,
      "econom": 1815,
      "fund": 1816,
      "la": 1817,
      "sever": 1818,
      "##ending": 1819,
      "least": 1820,
      "##ample": 1821,
      "major": 1822,
      "##ract": 1823,
      "rece": 1824,
      "full": 1825,
      "oper": 1826,
      "##self": 1827,
      "ref": 1828,
      "##used": 1829,
      "news": 1830,
      "points": 1831,
      "##aff": 1832,
      "##get": 1833,
      "##ustr": 1834,
      "appro": 1835,
      "Be": 1836,
      "est": 1837,
      "unt": 1838,
      "##itch": 1839,
      "##iversity": 1840,
      "pat": 1841,
      "why": 1842,
      "##ults": 1843,
      "president": 1844,
      "Mr": 1845,
      "##hor": 1846,
      "##unch": 1847,
      "However": 1848,
      "techn": 1849,
      "consider": 1850,
      "called": 1851,
      "dom": 1852,
      "must": 1853,
      "inform": 1854,
      "##ept": 1855,
      "14": 1856,
      "deb": 1857,
      "##ission": 1858,
      "del": 1859,
      "##atter": 1860,
      "##ality": 1861,
      "##ister": 1862,
      "##acy": 1863,
      "po": 1864,
      "##vir": 1865,
      "##onment": 1866,
      "police": 1867,
      "Christ": 1868,
      "Cl": 1869,
      "tell": 1870,
      "chang": 1871,
      "word": 1872,
      "move": 1873,
      "##ional": 1874,
      "health": 1875,
      "polic": 1876,
      "market": 1877,
      "data": 1878,
      "##ope": 1879,
      "##ensive": 1880,
      "tax": 1881,
      "##iter": 1882,
      "##ired": 1883,
      "exc": 1884,
      "deal": 1885,
      "question": 1886,
      "kind": 1887,
      "sol": 1888,
      "Canad": 1889,
      "fac": 1890,
      "line": 1891,
      "likely": 1892,
      "Dr": 1893,
      "away": 1894,
      "vers": 1895,
      "actually": 1896,
      "family": 1897,
      "##reen": 1898,
      "13": 1899,
      "Ob": 1900,
      "large": 1901,
      "##ats": 1902,
      "Or": 1903,
      "pot": 1904,
      "##crib": 1905,
      "##ites": 1906,
      "##str": 1907,
      "prop": 1908,
      "##aph": 1909,
      "Europe": 1910,
      "vot": 1911,
      "##ren": 1912,
      "##que": 1913,
      "##TL": 1914,
      "intern": 1915,
      "##..": 1916,
      "##ama": 1917,
      "making": 1918,
      "##ered": 1919,
      "ins": 1920,
      "##ilar": 1921,
      "##gy": 1922,
      "##alf": 1923,
      "##imum": 1924,
      "##ready": 1925,
      "##vironment": 1926,
      "Joh": 1927,
      "hist": 1928,
      "##yc": 1929,
      "##ggest": 1930,
      "happen": 1931,
      "17": 1932,
      "##ides": 1933,
      ".,": 1934,
      "16": 1935,
      "Dem": 1936,
      "air": 1937,
      "##ones": 1938,
      "able": 1939,
      "until": 1940,
      "##AR": 1941,
      "##ott": 1942,
      "##ams": 1943,
      "suggest": 1944,
      "strong": 1945,
      "Republic": 1946,
      "Sch": 1947,
      "ca": 1948,
      "free": 1949,
      "##aps": 1950,
      "plan": 1951,
      "##ox": 1952,
      "##iting": 1953,
      "##stand": 1954,
      "form": 1955,
      "already": 1956,
      "means": 1957,
      "##ither": 1958,
      "official": 1959,
      "equ": 1960,
      "kill": 1961,
      "watch": 1962,
      "mean": 1963,
      "manag": 1964,
      "May": 1965,
      "fri": 1966,
      "State": 1967,
      "##augh": 1968,
      "John": 1969,
      "problem": 1970,
      "Mc": 1971,
      "later": 1972,
      "larg": 1973,
      "##most": 1974,
      "higher": 1975,
      "across": 1976,
      "employ": 1977,
      "Car": 1978,
      "Go": 1979,
      "##ecut": 1980,
      "asked": 1981,
      "Pres": 1982,
      "human": 1983,
      "took": 1984,
      "##ising": 1985,
      "political": 1986,
      "vide": 1987,
      "##over": 1988,
      "##umb": 1989,
      "gener": 1990,
      "Russ": 1991,
      "done": 1992,
      "name": 1993,
      "##atives": 1994,
      "Ex": 1995,
      "city": 1996,
      "five": 1997,
      "reason": 1998,
      "example": 1999,
      "##ocial": 2000,
      "States": 2001,
      "business": 2002,
      "With": 2003,
      "low": 2004,
      "mind": 2005,
      "organ": 2006,
      "possible": 2007,
      "fut": 2008,
      "occ": 2009,
      "##icle": 2010,
      "##artment": 2011,
      "event": 2012,
      "working": 2013,
      "ident": 2014,
      "bas": 2015,
      "opt": 2016,
      "##aign": 2017,
      "##ri": 2018,
      "##ger": 2019,
      "having": 2020,
      "sure": 2021,
      "##raft": 2022,
      "players": 2023,
      "After": 2024,
      "view": 2025,
      "##eb": 2026,
      "white": 2027,
      "##ury": 2028,
      "young": 2029,
      "sex": 2030,
      "single": 2031,
      "several": 2032,
      "Den": 2033,
      "Tw": 2034,
      "games": 2035,
      "men": 2036,
      "##par": 2037,
      "former": 2038,
      "studies": 2039,
      "ever": 2040,
      "fight": 2041,
      "##uff": 2042,
      "##yr": 2043,
      "doing": 2044,
      "To": 2045,
      "mil": 2046,
      "##son": 2047,
      "##work": 2048,
      "These": 2049,
      "whether": 2050,
      "##verage": 2051,
      "result": 2052,
      "become": 2053,
      "profess": 2054,
      "25": 2055,
      "times": 2056,
      "##urs": 2057,
      "anal": 2058,
      "scor": 2059,
      "days": 2060,
      "water": 2061,
      "try": 2062,
      "##ourn": 2063,
      "getting": 2064,
      "known": 2065,
      "##itional": 2066,
      "Jap": 2067,
      "Min": 2068,
      "##ein": 2069,
      "##eck": 2070,
      "##urity": 2071,
      "environment": 2072,
      "months": 2073,
      "Japan": 2074,
      "Red": 2075,
      "York": 2076,
      "hold": 2077,
      "within": 2078,
      "Bel": 2079,
      "il": 2080,
      "sw": 2081,
      "tem": 2082,
      "##ederal": 2083,
      "believe": 2084,
      "My": 2085,
      "##ler": 2086,
      "##ries": 2087,
      "##ines": 2088,
      "##oto": 2089,
      "once": 2090,
      "along": 2091,
      "##ortun": 2092,
      "evidence": 2093,
      "relig": 2094,
      "issue": 2095,
      "avail": 2096,
      "bit": 2097,
      "makes": 2098,
      "##ization": 2099,
      "record": 2100,
      "specific": 2101,
      "complexity": 2102,
      "give": 2103,
      "##lement": 2104,
      "##ential": 2105,
      "##ended": 2106,
      "someone": 2107,
      "##ruct": 2108,
      "early": 2109,
      "course": 2110,
      "Me": 2111,
      "Some": 2112,
      "cho": 2113,
      "##ection": 2114,
      "President": 2115,
      "##uation": 2116,
      "##ability": 2117,
      "crit": 2118,
      "investig": 2119,
      "campaign": 2120,
      "future": 2121,
      "came": 2122,
      "mid": 2123,
      "##ories": 2124,
      "##thers": 2125,
      "pract": 2126,
      "results": 2127,
      "looking": 2128,
      "media": 2129,
      "Clin": 2130,
      "foc": 2131,
      "grow": 2132,
      "treat": 2133,
      "yet": 2134,
      "##ured": 2135,
      "##imate": 2136,
      "Brit": 2137,
      "certain": 2138,
      "et": 2139,
      "page": 2140,
      "probably": 2141,
      "fail": 2142,
      "##ware": 2143,
      "##acter": 2144,
      "almost": 2145,
      "##ague": 2146,
      "seen": 2147,
      "alloc": 2148,
      "among": 2149,
      "Democr": 2150,
      "100": 2151,
      "App": 2152,
      "Se": 2153,
      "repres": 2154,
      "according": 2155,
      "idea": 2156,
      "given": 2157,
      "##aul": 2158,
      "##nes": 2159,
      "##ober": 2160,
      "orig": 2161,
      "trying": 2162,
      "##duc": 2163,
      "University": 2164,
      "Don": 2165,
      "Dav": 2166,
      "##ron": 2167,
      "exist": 2168,
      "##ccess": 2169,
      "While": 2170,
      "study": 2171,
      "present": 2172,
      "information": 2173,
      "Co": 2174,
      "sour": 2175,
      "##tt": 2176,
      "isn": 2177,
      "comes": 2178,
      "##pping": 2179,
      "meas": 2180,
      "Just": 2181,
      "elect": 2182,
      "vis": 2183,
      "##gether": 2184,
      "##wh": 2185,
      "together": 2186,
      "charg": 2187,
      "started": 2188,
      "...": 2189,
      "fire": 2190,
      "face": 2191,
      "went": 2192,
      "priv": 2193,
      "##raw": 2194,
      "reported": 2195,
      "discuss": 2196,
      "particular": 2197,
      "Cal": 2198,
      "Not": 2199,
      "bro": 2200,
      "fav": 2201,
      "night": 2202,
      "rather": 2203,
      "project": 2204,
      "2016": 2205,
      "thought": 2206,
      "children": 2207,
      "Am": 2208,
      "body": 2209,
      "##oon": 2210,
      "tot": 2211,
      "today": 2212,
      "##empt": 2213,
      "##ument": 2214,
      "Stud": 2215,
      "announ": 2216,
      "Clinton": 2217,
      "Res": 2218,
      "##ration": 2219,
      "##oid": 2220,
      "press": 2221,
      "terr": 2222,
      "##ij": 2223,
      "##ering": 2224,
      "anything": 2225,
      "##lished": 2226,
      "North": 2227,
      "es": 2228,
      "##gress": 2229,
      "##aken": 2230,
      "##aper": 2231,
      "2013": 2232,
      "De": 2233,
      "either": 2234,
      "ra": 2235,
      "third": 2236,
      "##ald": 2237,
      "previous": 2238,
      "invol": 2239,
      "signific": 2240,
      "edit": 2241,
      "##vent": 2242,
      "##ins": 2243,
      "##ison": 2244,
      "begin": 2245,
      "quick": 2246,
      "understand": 2247,
      "cut": 2248,
      "rac": 2249,
      "sit": 2250,
      "side": 2251,
      "saf": 2252,
      "Inst": 2253,
      "available": 2254,
      "Pol": 2255,
      "else": 2256,
      "Cent": 2257,
      "Jan": 2258,
      "##sel": 2259,
      "##itter": 2260,
      "##rel": 2261,
      "##ley": 2262,
      "reach": 2263,
      "dev": 2264,
      "##ustom": 2265,
      "##ails": 2266,
      "2014": 2267,
      "impro": 2268,
      "pret": 2269,
      "saying": 2270,
      "Was": 2271,
      "mom": 2272,
      "##erman": 2273,
      "Ass": 2274,
      "similar": 2275,
      "community": 2276,
      "##enn": 2277,
      "##itive": 2278,
      "##irc": 2279,
      "author": 2280,
      "Bro": 2281,
      "Ed": 2282,
      "lear": 2283,
      "threat": 2284,
      "##ulation": 2285,
      "##ume": 2286,
      "minimum": 2287,
      "function": 2288,
      "entire": 2289,
      "web": 2290,
      "Comm": 2291,
      "Now": 2292,
      "join": 2293,
      "pub": 2294,
      "sound": 2295,
      "##lam": 2296,
      "##BC": 2297,
      "##though": 2298,
      "##ivid": 2299,
      "eng": 2300,
      "national": 2301,
      "##iol": 2302,
      "##ined": 2303,
      "##ony": 2304,
      "##ators": 2305,
      "##omm": 2306,
      "party": 2307,
      "doub": 2308,
      "hour": 2309,
      "##eal": 2310,
      "##aster": 2311,
      "##abor": 2312,
      "effects": 2313,
      "America": 2314,
      "special": 2315,
      "return": 2316,
      "fre": 2317,
      "half": 2318,
      "match": 2319,
      "social": 2320,
      "##by": 2321,
      "##urther": 2322,
      "area": 2323,
      "memory": 2324,
      "bad": 2325,
      "mult": 2326,
      "net": 2327,
      "##isc": 2328,
      "death": 2329,
      "##ender": 2330,
      "contain": 2331,
      "general": 2332,
      "His": 2333,
      "Paul": 2334,
      "Will": 2335,
      "bene": 2336,
      "fall": 2337,
      "others": 2338,
      "sent": 2339,
      "player": 2340,
      "related": 2341,
      "following": 2342,
      "significant": 2343,
      "24": 2344,
      "gun": 2345,
      "light": 2346,
      "pick": 2347,
      "sal": 2348,
      "wage": 2349,
      "##lim": 2350,
      "##ming": 2351,
      "##ged": 2352,
      "##ination": 2353,
      "##utes": 2354,
      "super": 2355,
      "agre": 2356,
      "Americans": 2357,
      "local": 2358,
      ".)": 2359,
      "lim": 2360,
      "land": 2361,
      "##ium": 2362,
      "wasn": 2363,
      "short": 2364,
      "activ": 2365,
      "teams": 2366,
      "##ength": 2367,
      "federal": 2368,
      "##be": 2369,
      "##ball": 2370,
      "describ": 2371,
      "added": 2372,
      "members": 2373,
      "released": 2374,
      "50": 2375,
      "Bar": 2376,
      "size": 2377,
      "trad": 2378,
      "needs": 2379,
      "billion": 2380,
      "##ane": 2381,
      "review": 2382,
      "ant": 2383,
      "##ference": 2384,
      "simply": 2385,
      "love": 2386,
      "miss": 2387,
      "##lu": 2388,
      "##fic": 2389,
      "##back": 2390,
      "##ester": 2391,
      "##ape": 2392,
      "##ellig": 2393,
      "experience": 2394,
      "character": 2395,
      "##stein": 2396,
      "##ustry": 2397,
      "##ogr": 2398,
      "repl": 2399,
      "22": 2400,
      "40": 2401,
      "fig": 2402,
      "content": 2403,
      "China": 2404,
      "companies": 2405,
      "current": 2406,
      "pretty": 2407,
      "##ER": 2408,
      "comb": 2409,
      "success": 2410,
      "ago": 2411,
      "playing": 2412,
      "##ological": 2413,
      "countries": 2414,
      "service": 2415,
      "Wild": 2416,
      "fix": 2417,
      "taking": 2418,
      "##_t": 2419,
      "##por": 2420,
      "##mb": 2421,
      "##ots": 2422,
      "##ament": 2423,
      "clos": 2424,
      "everything": 2425,
      "include": 2426,
      "self": 2427,
      "##book": 2428,
      "##irt": 2429,
      "true": 2430,
      "meet": 2431,
      "2012": 2432,
      "2015": 2433,
      "individ": 2434,
      "below": 2435,
      "issues": 2436,
      "break": 2437,
      "##selves": 2438,
      "House": 2439,
      "IQ": 2440,
      "average": 2441,
      "circ": 2442,
      "key": 2443,
      "sum": 2444,
      "##yn": 2445,
      "##for": 2446,
      "##go": 2447,
      "front": 2448,
      "##rael": 2449,
      "relations": 2450,
      "matter": 2451,
      "##rip": 2452,
      "##ances": 2453,
      "block": 2454,
      "instead": 2455,
      "groups": 2456,
      "video": 2457,
      "represent": 2458,
      "favor": 2459,
      "South": 2460,
      "##uary": 2461,
      "##isk": 2462,
      "woman": 2463,
      "increase": 2464,
      "meth": 2465,
      "\".": 2466,
      "21": 2467,
      "Wor": 2468,
      "cult": 2469,
      "viol": 2470,
      "##rew": 2471,
      "##iff": 2472,
      "recent": 2473,
      "account": 2474,
      "students": 2475,
      "wanted": 2476,
      "vari": 2477,
      "behind": 2478,
      "policy": 2479,
      "version": 2480,
      "Obama": 2481,
      "British": 2482,
      "Eng": 2483,
      "Kore": 2484,
      "due": 2485,
      "educ": 2486,
      "##aid": 2487,
      "##--": 2488,
      "##action": 2489,
      "##duct": 2490,
      "By": 2491,
      "El": 2492,
      "taken": 2493,
      "##br": 2494,
      "##etic": 2495,
      "##une": 2496,
      "prim": 2497,
      "saw": 2498,
      "Calif": 2499,
      "Sec": 2500,
      "creat": 2501,
      "lo": 2502,
      "rul": 2503,
      "##ke": 2504,
      "##arter": 2505,
      "coming": 2506,
      "##ung": 2507,
      "works": 2508,
      "stru": 2509,
      "however": 2510,
      "Israel": 2511,
      "value": 2512,
      "Acc": 2513,
      "Ge": 2514,
      "Mich": 2515,
      "div": 2516,
      "esp": 2517,
      "six": 2518,
      "##eed": 2519,
      "##ask": 2520,
      "##omes": 2521,
      "outside": 2522,
      "enter": 2523,
      "2011": 2524,
      "attack": 2525,
      "glob": 2526,
      "Canada": 2527,
      "Des": 2528,
      "Mus": 2529,
      "Pe": 2530,
      "vol": 2531,
      "##sy": 2532,
      "##let": 2533,
      "##ude": 2534,
      "whole": 2535,
      "black": 2536,
      "security": 2537,
      "liberal": 2538,
      "00": 2539,
      "mor": 2540,
      "stre": 2541,
      "##ify": 2542,
      "##ibility": 2543,
      "Su": 2544,
      "##sw": 2545,
      "init": 2546,
      "Islam": 2547,
      "election": 2548,
      "history": 2549,
      "Ab": 2550,
      "flo": 2551,
      "mag": 2552,
      "states": 2553,
      "##vert": 2554,
      "##istic": 2555,
      "enc": 2556,
      "room": 2557,
      "role": 2558,
      "City": 2559,
      "custom": 2560,
      "vict": 2561,
      "##ring": 2562,
      "##ients": 2563,
      "##aged": 2564,
      "##ector": 2565,
      "implement": 2566,
      "industry": 2567,
      "##fully": 2568,
      "targ": 2569,
      "item": 2570,
      "##ift": 2571,
      "##load": 2572,
      "access": 2573,
      "##elligence": 2574,
      "##app": 2575,
      "##iday": 2576,
      "##ades": 2577,
      "bring": 2578,
      "individual": 2579,
      "Californ": 2580,
      "Par": 2581,
      "race": 2582,
      "##asing": 2583,
      "##ecess": 2584,
      "##ival": 2585,
      "soft": 2586,
      "##anks": 2587,
      "extrem": 2588,
      "Dec": 2589,
      "cases": 2590,
      "dest": 2591,
      "foot": 2592,
      "##dle": 2593,
      "##eter": 2594,
      "quite": 2595,
      "provide": 2596,
      "require": 2597,
      "##ficult": 2598,
      "##ne": 2599,
      "nothing": 2600,
      "space": 2601,
      "cover": 2602,
      "coach": 2603,
      "World": 2604,
      "Ear": 2605,
      "German": 2606,
      "mus": 2607,
      "##0s": 2608,
      "##not": 2609,
      "##ecially": 2610,
      "star": 2611,
      "chall": 2612,
      "##oke": 2613,
      "close": 2614,
      "##ribut": 2615,
      "type": 2616,
      "development": 2617,
      "di": 2618,
      "##rary": 2619,
      "##ilt": 2620,
      "conv": 2621,
      "##thern": 2622,
      "interview": 2623,
      "difficult": 2624,
      "obs": 2625,
      "imm": 2626,
      "##ograph": 2627,
      "doc": 2628,
      "further": 2629,
      "hope": 2630,
      "##use": 2631,
      "##lus": 2632,
      "##my": 2633,
      "##orr": 2634,
      "toward": 2635,
      "##ivil": 2636,
      "##osp": 2637,
      "##iple": 2638,
      "unc": 2639,
      "##minist": 2640,
      "seems": 2641,
      "launch": 2642,
      "Med": 2643,
      "West": 2644,
      "card": 2645,
      "field": 2646,
      "##ned": 2647,
      "##arm": 2648,
      "##oud": 2649,
      "##asons": 2650,
      "neg": 2651,
      "ground": 2652,
      "total": 2653,
      "Do": 2654,
      "dam": 2655,
      "##ural": 2656,
      "proper": 2657,
      "prin": 2658,
      "ability": 2659,
      "compet": 2660,
      "##rupt": 2661,
      "wrong": 2662,
      "member": 2663,
      "January": 2664,
      "house": 2665,
      "##uly": 2666,
      "##ett": 2667,
      "questions": 2668,
      "jobs": 2669,
      "performance": 2670,
      "domain": 2671,
      "especially": 2672,
      "Ag": 2673,
      "Dep": 2674,
      "Off": 2675,
      "bar": 2676,
      "##lier": 2677,
      "online": 2678,
      "answ": 2679,
      "weap": 2680,
      "worth": 2681,
      "upd": 2682,
      "expect": 2683,
      "office": 2684,
      "wrote": 2685,
      "phys": 2686,
      "series": 2687,
      "article": 2688,
      "changes": 2689,
      "Sm": 2690,
      "##den": 2691,
      "##ests": 2692,
      "exact": 2693,
      "abs": 2694,
      "Gu": 2695,
      "cop": 2696,
      "hit": 2697,
      "rad": 2698,
      "##omp": 2699,
      "scient": 2700,
      "needed": 2701,
      "colle": 2702,
      "approach": 2703,
      "##ycling": 2704,
      "analys": 2705,
      "##ttp": 2706,
      "BAR": 2707,
      "Fl": 2708,
      "National": 2709,
      "age": 2710,
      "live": 2711,
      "step": 2712,
      "##iller": 2713,
      "deep": 2714,
      "expected": 2715,
      "amount": 2716,
      "position": 2717,
      "particip": 2718,
      "concern": 2719,
      "potential": 2720,
      "##ript": 2721,
      "Af": 2722,
      "Hait": 2723,
      "Im": 2724,
      "Part": 2725,
      "Sept": 2726,
      "cand": 2727,
      "code": 2728,
      "er": 2729,
      "fair": 2730,
      "mis": 2731,
      "##ilities": 2732,
      "above": 2733,
      "##achine": 2734,
      "common": 2735,
      "28": 2736,
      "War": 2737,
      "kid": 2738,
      "sense": 2739,
      "##erc": 2740,
      "##ows": 2741,
      "##urch": 2742,
      "##ested": 2743,
      "##unt": 2744,
      "itself": 2745,
      "cred": 2746,
      "everyone": 2747,
      "differences": 2748,
      "influ": 2749,
      "statement": 2750,
      "Tues": 2751,
      "coup": 2752,
      "sus": 2753,
      "##onse": 2754,
      "##arily": 2755,
      "##aces": 2756,
      "stop": 2757,
      "##irst": 2758,
      "execut": 2759,
      "##elling": 2760,
      "user": 2761,
      "##order": 2762,
      "themselves": 2763,
      "198": 2764,
      "address": 2765,
      "longer": 2766,
      "running": 2767,
      "words": 2768,
      ">/": 2769,
      "ey": 2770,
      "food": 2771,
      "mess": 2772,
      "##af": 2773,
      "##ench": 2774,
      "##ises": 2775,
      "##ili": 2776,
      "forward": 2777,
      "staff": 2778,
      "2010": 2779,
      "##hington": 2780,
      "deter": 2781,
      "benef": 2782,
      "Here": 2783,
      "San": 2784,
      "##ule": 2785,
      "##ault": 2786,
      "thous": 2787,
      "##ored": 2788,
      "aren": 2789,
      "soon": 2790,
      "production": 2791,
      "accept": 2792,
      "officials": 2793,
      "environmental": 2794,
      "charges": 2795,
      "Washington": 2796,
      "moment": 2797,
      "published": 2798,
      "method": 2799,
      "Tuesday": 2800,
      "ap": 2801,
      "mar": 2802,
      "##haps": 2803,
      "Friday": 2804,
      "term": 2805,
      "Comp": 2806,
      "quickly": 2807,
      "Cons": 2808,
      "UK": 2809,
      "http": 2810,
      "mass": 2811,
      "##pite": 2812,
      "##AT": 2813,
      "##elt": 2814,
      "##irl": 2815,
      "difference": 2816,
      "response": 2817,
      "standard": 2818,
      "##medi": 2819,
      "relationship": 2820,
      "IS": 2821,
      "##sh": 2822,
      "##aced": 2823,
      "except": 2824,
      "intelligence": 2825,
      "##ogn": 2826,
      "##anger": 2827,
      "##itted": 2828,
      "respons": 2829,
      "release": 2830,
      "create": 2831,
      "milit": 2832,
      "original": 2833,
      "According": 2834,
      "EAS": 2835,
      "aw": 2836,
      "tit": 2837,
      "wait": 2838,
      "##ging": 2839,
      "##ube": 2840,
      "gets": 2841,
      "decision": 2842,
      "held": 2843,
      "voters": 2844,
      "global": 2845,
      "bi": 2846,
      "coun": 2847,
      "lower": 2848,
      "round": 2849,
      "##ral": 2850,
      "cannot": 2851,
      "text": 2852,
      "##ression": 2853,
      "News": 2854,
      "regard": 2855,
      "continue": 2856,
      "building": 2857,
      "##olution": 2858,
      "##ification": 2859,
      "shows": 2860,
      "network": 2861,
      "susp": 2862,
      "EASTL": 2863,
      "23": 2864,
      "Cycling": 2865,
      "Every": 2866,
      "Ne": 2867,
      "bill": 2868,
      "civil": 2869,
      "port": 2870,
      "##head": 2871,
      "##OR": 2872,
      "##adem": 2873,
      "suff": 2874,
      "##raz": 2875,
      "personal": 2876,
      "speech": 2877,
      "candid": 2878,
      "Face": 2879,
      "late": 2880,
      "##hood": 2881,
      "##ky": 2882,
      "##ream": 2883,
      "##eth": 2884,
      "dead": 2885,
      "played": 2886,
      "himself": 2887,
      "final": 2888,
      "email": 2889,
      "##ociation": 2890,
      "court": 2891,
      "focus": 2892,
      "announced": 2893,
      "En": 2894,
      "EU": 2895,
      "##yle": 2896,
      "conduct": 2897,
      "comput": 2898,
      "contract": 2899,
      "##aily": 2900,
      "poll": 2901,
      "##rug": 2902,
      "object": 2903,
      "capt": 2904,
      "easy": 2905,
      "Miss": 2906,
      "base": 2907,
      "link": 2908,
      "necess": 2909,
      "range": 2910,
      "site": 2911,
      "##port": 2912,
      "##FL": 2913,
      "##bo": 2914,
      "##bum": 2915,
      "##lex": 2916,
      "##ster": 2917,
      "began": 2918,
      "che": 2919,
      "2017": 2920,
      "##itting": 2921,
      "buy": 2922,
      "defin": 2923,
      "reading": 2924,
      "terms": 2925,
      "friends": 2926,
      "situation": 2927,
      "Cont": 2928,
      "More": 2929,
      "Mark": 2930,
      "cause": 2931,
      "stuff": 2932,
      "conn": 2933,
      "##ables": 2934,
      "spent": 2935,
      "weeks": 2936,
      "autom": 2937,
      "European": 2938,
      "David": 2939,
      "Cong": 2940,
      "Even": 2941,
      "action": 2942,
      "coll": 2943,
      "emer": 2944,
      "lost": 2945,
      "sn": 2946,
      "##aker": 2947,
      "heav": 2948,
      "pred": 2949,
      "Intern": 2950,
      "built": 2951,
      "Black": 2952,
      "estim": 2953,
      "measure": 2954,
      "First": 2955,
      "Post": 2956,
      "fem": 2957,
      "##uge": 2958,
      "##li": 2959,
      "##ners": 2960,
      "##yl": 2961,
      "##ES": 2962,
      "##esh": 2963,
      "##oming": 2964,
      "##ires": 2965,
      "##oph": 2966,
      "price": 2967,
      "recently": 2968,
      "minutes": 2969,
      "opportun": 2970,
      "happened": 2971,
      "Austr": 2972,
      "cal": 2973,
      "hot": 2974,
      "ple": 2975,
      "##co": 2976,
      "refer": 2977,
      "stay": 2978,
      "whose": 2979,
      "administ": 2980,
      "worked": 2981,
      "additional": 2982,
      "created": 2983,
      "redu": 2984,
      "Republican": 2985,
      "private": 2986,
      "hours": 2987,
      "California": 2988,
      "Har": 2989,
      "Ir": 2990,
      "Mon": 2991,
      "aud": 2992,
      "##ico": 2993,
      "##reg": 2994,
      "##ental": 2995,
      "##eless": 2996,
      "seek": 2997,
      "goal": 2998,
      "adm": 2999,
      "finish": 3000,
      "surpr": 3001,
      "education": 3002,
      "?”": 3003,
      "Cor": 3004,
      "led": 3005,
      "nation": 3006,
      "que": 3007,
      "rights": 3008,
      "ways": 3009,
      "##erry": 3010,
      "##ctions": 3011,
      "##ateg": 3012,
      "attempt": 3013,
      "board": 3014,
      "serious": 3015,
      "##ociety": 3016,
      "legal": 3017,
      "Muslim": 3018,
      "target": 3019,
      "Facebook": 3020,
      "Wed": 3021,
      "lack": 3022,
      "sort": 3023,
      "##atism": 3024,
      "inj": 3025,
      "anim": 3026,
      "##osing": 3027,
      "trav": 3028,
      "quarter": 3029,
      "consum": 3030,
      "immedi": 3031,
      "sometimes": 3032,
      "laws": 3033,
      "heard": 3034,
      "simple": 3035,
      "received": 3036,
      "Japanese": 3037,
      "source": 3038,
      "involved": 3039,
      "September": 3040,
      "Qu": 3041,
      "Rober": 3042,
      "Sen": 3043,
      "log": 3044,
      "paper": 3045,
      "##aur": 3046,
      "##ique": 3047,
      "##atures": 3048,
      "##aring": 3049,
      "##amed": 3050,
      "alleg": 3051,
      "##uments": 3052,
      "goes": 3053,
      "##ips": 3054,
      "##izing": 3055,
      "applic": 3056,
      "collect": 3057,
      "slow": 3058,
      "services": 3059,
      "heart": 3060,
      "Photo": 3061,
      "turned": 3062,
      "film": 3063,
      "technology": 3064,
      "exactly": 3065,
      "Our": 3066,
      "Oct": 3067,
      "STL": 3068,
      "ten": 3069,
      "##ees": 3070,
      "rev": 3071,
      "check": 3072,
      "univers": 3073,
      "Why": 3074,
      "officer": 3075,
      "medical": 3076,
      "nearly": 3077,
      "economic": 3078,
      "Congress": 3079,
      "GO": 3080,
      "TV": 3081,
      "walk": 3082,
      "##fact": 3083,
      "##itions": 3084,
      "inside": 3085,
      "cond": 3086,
      "earlier": 3087,
      "model": 3088,
      "conservatives": 3089,
      "friend": 3090,
      "Twitter": 3091,
      "##ournal": 3092,
      "improve": 3093,
      "Willi": 3094,
      "29": 3095,
      "Law": 3096,
      "Sw": 3097,
      "mot": 3098,
      "sen": 3099,
      "##iod": 3100,
      "progress": 3101,
      "track": 3102,
      "spot": 3103,
      "users": 3104,
      "##ubb": 3105,
      "string": 3106,
      "strength": 3107,
      "avoid": 3108,
      "##nesday": 3109,
      "Wednesday": 3110,
      "Count": 3111,
      "Green": 3112,
      "Hill": 3113,
      "Most": 3114,
      "##ael": 3115,
      "##ole": 3116,
      "##19": 3117,
      "##18": 3118,
      "Thurs": 3119,
      "enj": 3120,
      "196": 3121,
      "##rought": 3122,
      "looks": 3123,
      "March": 3124,
      "leaders": 3125,
      "costs": 3126,
      "demon": 3127,
      "problems": 3128,
      "currently": 3129,
      "poor": 3130,
      "religion": 3131,
      "King": 3132,
      "Lib": 3133,
      "Sund": 3134,
      "draw": 3135,
      "gam": 3136,
      "living": 3137,
      "pan": 3138,
      "pain": 3139,
      "push": 3140,
      "search": 3141,
      "vo": 3142,
      "##IS": 3143,
      "##oring": 3144,
      "##omen": 3145,
      "##iminal": 3146,
      "comment": 3147,
      "training": 3148,
      "##okes": 3149,
      "leave": 3150,
      "Step": 3151,
      "recomm": 3152,
      "phot": 3153,
      "##ounts": 3154,
      "topic": 3155,
      "skill": 3156,
      "webs": 3157,
      "Department": 3158,
      "Her": 3159,
      "Syr": 3160,
      "bur": 3161,
      "ep": 3162,
      "fans": 3163,
      "gave": 3164,
      "hop": 3165,
      "rate": 3166,
      "sat": 3167,
      "takes": 3168,
      "##ana": 3169,
      "##omb": 3170,
      "album": 3171,
      "From": 3172,
      "caus": 3173,
      "rules": 3174,
      "35": 3175,
      "bud": 3176,
      "nor": 3177,
      "##rict": 3178,
      "##omas": 3179,
      "##vey": 3180,
      "##ully": 3181,
      "share": 3182,
      "chance": 3183,
      "prior": 3184,
      "dog": 3185,
      "##epend": 3186,
      "period": 3187,
      "disp": 3188,
      "White": 3189,
      "impact": 3190,
      "conservative": 3191,
      "international": 3192,
      "critic": 3193,
      "software": 3194,
      "military": 3195,
      "Thursday": 3196,
      "Of": 3197,
      "Park": 3198,
      "Times": 3199,
      "Well": 3200,
      "lat": 3201,
      "natur": 3202,
      "pack": 3203,
      "##mark": 3204,
      "##aries": 3205,
      "##uth": 3206,
      "Then": 3207,
      "areas": 3208,
      "doct": 3209,
      "career": 3210,
      "##anned": 3211,
      "##sych": 3212,
      "Gen": 3213,
      "ball": 3214,
      "den": 3215,
      "mention": 3216,
      "virt": 3217,
      "##egr": 3218,
      "##cer": 3219,
      "##//": 3220,
      "##oman": 3221,
      "Thomas": 3222,
      "reb": 3223,
      "ener": 3224,
      "perhaps": 3225,
      "overall": 3226,
      "##itten": 3227,
      "##ruction": 3228,
      "##orney": 3229,
      "director": 3230,
      "population": 3231,
      "purp": 3232,
      "majority": 3233,
      "considered": 3234,
      "engine": 3235,
      "Geor": 3236,
      "(@": 3237,
      "://": 3238,
      "Apr": 3239,
      "Rich": 3240,
      "mater": 3241,
      "##pe": 3242,
      "##IN": 3243,
      "##ouch": 3244,
      "##erson": 3245,
      "select": 3246,
      "wouldn": 3247,
      "climate": 3248,
      "score": 3249,
      "grad": 3250,
      "##undred": 3251,
      "##ospital": 3252,
      "Haiti": 3253,
      "thousands": 3254,
      "\",": 3255,
      "Aug": 3256,
      "Pat": 3257,
      "bott": 3258,
      "ce": 3259,
      "cell": 3260,
      "girl": 3261,
      "##uit": 3262,
      "##uel": 3263,
      "##cript": 3264,
      "##val": 3265,
      "##fect": 3266,
      "##gest": 3267,
      "##rodu": 3268,
      "arch": 3269,
      "defense": 3270,
      "##attle": 3271,
      "Center": 3272,
      "See": 3273,
      "Tur": 3274,
      "dro": 3275,
      "lay": 3276,
      "son": 3277,
      "sold": 3278,
      "##ef": 3279,
      "##tain": 3280,
      "##yond": 3281,
      "force": 3282,
      "beyond": 3283,
      "##aging": 3284,
      "plat": 3285,
      "Although": 3286,
      "leader": 3287,
      "Russian": 3288,
      "practice": 3289,
      "Donald": 3290,
      "safe": 3291,
      "described": 3292,
      "Austral": 3293,
      "26": 3294,
      "AG": 3295,
      "Dan": 3296,
      "Up": 3297,
      "host": 3298,
      "jud": 3299,
      "norm": 3300,
      "##ON": 3301,
      "##ban": 3302,
      "##atory": 3303,
      "##emp": 3304,
      "shot": 3305,
      "anyone": 3306,
      "effort": 3307,
      "financ": 3308,
      "ideology": 3309,
      "primary": 3310,
      "morning": 3311,
      "couple": 3312,
      "demonstr": 3313,
      "April": 3314,
      "June": 3315,
      "brought": 3316,
      "wants": 3317,
      "##oo": 3318,
      "##entially": 3319,
      "##igr": 3320,
      "##ighb": 3321,
      "##ander": 3322,
      "trade": 3323,
      "##ibly": 3324,
      "Str": 3325,
      "scale": 3326,
      "##enced": 3327,
      "officers": 3328,
      "experi": 3329,
      "parts": 3330,
      "popular": 3331,
      "appears": 3332,
      "Democrats": 3333,
      "Afric": 3334,
      "Pal": 3335,
      "fill": 3336,
      "hundred": 3337,
      "loss": 3338,
      "risk": 3339,
      "##set": 3340,
      "##SU": 3341,
      "##eds": 3342,
      "##anch": 3343,
      "##atever": 3344,
      "note": 3345,
      "deg": 3346,
      "##aving": 3347,
      "secret": 3348,
      "phone": 3349,
      "subject": 3350,
      "hands": 3351,
      "respond": 3352,
      "correl": 3353,
      "economy": 3354,
      "religious": 3355,
      "treatment": 3356,
      "Wildstein": 3357,
      "Sunday": 3358,
      "Rec": 3359,
      "Read": 3360,
      "bank": 3361,
      "hon": 3362,
      "##itude": 3363,
      "uses": 3364,
      "agency": 3365,
      "workers": 3366,
      "became": 3367,
      "##oint": 3368,
      "##ressed": 3369,
      "coal": 3370,
      "##ittee": 3371,
      "write": 3372,
      "starting": 3373,
      "weekend": 3374,
      "##ledge": 3375,
      "confir": 3376,
      "experim": 3377,
      "Play": 3378,
      "multiple": 3379,
      "##force": 3380,
      "analysis": 3381,
      "Bec": 3382,
      "Mond": 3383,
      "Port": 3384,
      "lives": 3385,
      "ver": 3386,
      "##ai": 3387,
      "##oe": 3388,
      "##gn": 3389,
      "##ona": 3390,
      "##idget": 3391,
      "tried": 3392,
      "separ": 3393,
      "##ought": 3394,
      "##angu": 3395,
      "looked": 3396,
      "ready": 3397,
      "biggest": 3398,
      "factors": 3399,
      "India": 3400,
      "demand": 3401,
      "levels": 3402,
      "investigation": 3403,
      "fixed": 3404,
      "struct": 3405,
      "energy": 3406,
      "felt": 3407,
      "##uous": 3408,
      "##iec": 3409,
      "##me": 3410,
      "##idents": 3411,
      "fore": 3412,
      "alone": 3413,
      "convers": 3414,
      "chief": 3415,
      "integr": 3416,
      "neighb": 3417,
      "##ogle": 3418,
      "offer": 3419,
      "thinking": 3420,
      "regular": 3421,
      "guy": 3422,
      "complet": 3423,
      "provided": 3424,
      "Island": 3425,
      "obvious": 3426,
      "Mars": 3427,
      "library": 3428,
      "propos": 3429,
      "Republicans": 3430,
      "growth": 3431,
      "Michael": 3432,
      "latest": 3433,
      "Over": 3434,
      "Sand": 3435,
      "VR": 3436,
      "gas": 3437,
      "##ny": 3438,
      "##LE": 3439,
      "##arian": 3440,
      "##itute": 3441,
      "##rect": 3442,
      "##ondon": 3443,
      "criminal": 3444,
      "decided": 3445,
      "remain": 3446,
      "2008": 3447,
      "required": 3448,
      "schools": 3449,
      "broad": 3450,
      "People": 3451,
      "##vertis": 3452,
      "music": 3453,
      "material": 3454,
      "platform": 3455,
      "Act": 3456,
      "Miller": 3457,
      "Per": 3458,
      "Val": 3459,
      "fell": 3460,
      "mer": 3461,
      "wind": 3462,
      "##hold": 3463,
      "##ck": 3464,
      "##OT": 3465,
      "##bit": 3466,
      "##ales": 3467,
      "##oles": 3468,
      "club": 3469,
      "quality": 3470,
      "indic": 3471,
      "League": 3472,
      "directly": 3473,
      "scores": 3474,
      "December": 3475,
      "answer": 3476,
      "Monday": 3477,
      "31": 3478,
      "Cour": 3479,
      "Fin": 3480,
      "Feb": 3481,
      "Ser": 3482,
      "Tre": 3483,
      "doll": 3484,
      "ed": 3485,
      "lab": 3486,
      "pen": 3487,
      "wond": 3488,
      "##AN": 3489,
      "##eration": 3490,
      "##ening": 3491,
      "##ara": 3492,
      "##icro": 3493,
      "comments": 3494,
      "##pper": 3495,
      "##akers": 3496,
      "Stre": 3497,
      "##ipe": 3498,
      "usually": 3499,
      "download": 3500,
      "showed": 3501,
      "extra": 3502,
      "numbers": 3503,
      "claims": 3504,
      "illeg": 3505,
      "absol": 3506,
      "27": 3507,
      "border": 3508,
      "dig": 3509,
      "lif": 3510,
      "machine": 3511,
      "ur": 3512,
      "##awn": 3513,
      "##iant": 3514,
      "##itution": 3515,
      "std": 3516,
      "alg": 3517,
      "spending": 3518,
      "##berg": 3519,
      "twe": 3520,
      "##encies": 3521,
      "reality": 3522,
      "talking": 3523,
      "terror": 3524,
      "anti": 3525,
      "Korea": 3526,
      "60": 3527,
      "Sim": 3528,
      "gap": 3529,
      "gives": 3530,
      "pict": 3531,
      "##off": 3532,
      "##ened": 3533,
      "##ario": 3534,
      "##isher": 3535,
      "reve": 3536,
      "shoot": 3537,
      "reports": 3538,
      "197": 3539,
      "consist": 3540,
      "Also": 3541,
      "calls": 3542,
      "respect": 3543,
      "designed": 3544,
      "protect": 3545,
      "books": 3546,
      "patients": 3547,
      "largest": 3548,
      "Russia": 3549,
      "##where": 3550,
      "Research": 3551,
      "liberals": 3552,
      "Earth": 3553,
      "foreign": 3554,
      "Bush": 3555,
      "Cr": 3556,
      "Gl": 3557,
      "London": 3558,
      "Satur": 3559,
      "band": 3560,
      "rank": 3561,
      "##_w": 3562,
      "##box": 3563,
      "##lev": 3564,
      "##etro": 3565,
      "ones": 3566,
      "reasons": 3567,
      "pros": 3568,
      "exam": 3569,
      "##iber": 3570,
      "contact": 3571,
      "unl": 3572,
      "useful": 3573,
      "academ": 3574,
      "surv": 3575,
      "tests": 3576,
      "politics": 3577,
      "Many": 3578,
      "debate": 3579,
      "manager": 3580,
      "particularly": 3581,
      "Studies": 3582,
      "frequ": 3583,
      "victim": 3584,
      "County": 3585,
      "enjoy": 3586,
      "Saturday": 3587,
      "Aut": 3588,
      "Good": 3589,
      "Mor": 3590,
      "ach": 3591,
      "cur": 3592,
      "cross": 3593,
      "##ufact": 3594,
      "##iet": 3595,
      "##of": 3596,
      "##body": 3597,
      "insp": 3598,
      "##iding": 3599,
      "##iring": 3600,
      "seven": 3601,
      "compar": 3602,
      "perfect": 3603,
      "addition": 3604,
      "written": 3605,
      "includes": 3606,
      "included": 3607,
      "assist": 3608,
      "associ": 3609,
      "Ang": 3610,
      "subst": 3611,
      "topics": 3612,
      "types": 3613,
      "detail": 3614,
      "certainly": 3615,
      "esc": 3616,
      "figure": 3617,
      ");": 3618,
      "Oz": 3619,
      "RR": 3620,
      "eight": 3621,
      "hom": 3622,
      "hospital": 3623,
      "sil": 3624,
      "via": 3625,
      "##uing": 3626,
      "##pect": 3627,
      "##ror": 3628,
      "##jects": 3629,
      "##estern": 3630,
      "##ado": 3631,
      "##ears": 3632,
      "exerc": 3633,
      "plans": 3634,
      "spokes": 3635,
      "resour": 3636,
      "events": 3637,
      "subs": 3638,
      "capital": 3639,
      "carry": 3640,
      "larger": 3641,
      "employment": 3642,
      "choice": 3643,
      "female": 3644,
      "website": 3645,
      "August": 3646,
      "Gre": 3647,
      "Get": 3648,
      "July": 3649,
      "NFL": 3650,
      "drug": 3651,
      "liter": 3652,
      "langu": 3653,
      "mob": 3654,
      "names": 3655,
      "##ex": 3656,
      "##cing": 3657,
      "##men": 3658,
      "##mber": 3659,
      "##na": 3660,
      "##ges": 3661,
      "forces": 3662,
      "##aint": 3663,
      "contr": 3664,
      "disapp": 3665,
      "science": 3666,
      "##licit": 3667,
      "cool": 3668,
      "##oved": 3669,
      "##rowd": 3670,
      "Space": 3671,
      "promot": 3672,
      "purch": 3673,
      "products": 3674,
      "presidential": 3675,
      "policies": 3676,
      "Brown": 3677,
      "limited": 3678,
      "administration": 3679,
      "Because": 3680,
      "##_widget": 3681,
      "Low": 3682,
      "Sav": 3683,
      "mir": 3684,
      "piec": 3685,
      "squ": 3686,
      "vote": 3687,
      "##kn": 3688,
      "##32": 3689,
      "##astic": 3690,
      "recogn": 3691,
      "attacks": 3692,
      "##iction": 3693,
      "independ": 3694,
      "remember": 3695,
      "smart": 3696,
      "status": 3697,
      "various": 3698,
      "histor": 3699,
      "middle": 3700,
      "agreement": 3701,
      "floor": 3702,
      "achie": 3703,
      "BBC": 3704,
      "Great": 3705,
      "Mart": 3706,
      "Ver": 3707,
      "cle": 3708,
      "crowd": 3709,
      "giving": 3710,
      "huge": 3711,
      "##ih": 3712,
      "##come": 3713,
      "##xual": 3714,
      "##gar": 3715,
      "##AD": 3716,
      "town": 3717,
      "##urt": 3718,
      "##imin": 3719,
      "altern": 3720,
      "do_widget": 3721,
      "intr": 3722,
      "mostly": 3723,
      "##echan": 3724,
      "drink": 3725,
      "argument": 3726,
      "##aught": 3727,
      "beginning": 3728,
      "physical": 3729,
      "executive": 3730,
      "recommend": 3731,
      "34": 3732,
      "45": 3733,
      "Mat": 3734,
      "Mid": 3735,
      "Yes": 3736,
      "gone": 3737,
      "labor": 3738,
      "mix": 3739,
      "psych": 3740,
      "tre": 3741,
      "##anced": 3742,
      "inn": 3743,
      "##eles": 3744,
      "weight": 3745,
      "introdu": 3746,
      "##ovember": 3747,
      "##ropri": 3748,
      "##airs": 3749,
      "road": 3750,
      "department": 3751,
      "slight": 3752,
      "behav": 3753,
      "Govern": 3754,
      "ill": 3755,
      "templ": 3756,
      "October": 3757,
      "Hillary": 3758,
      "budget": 3759,
      "completely": 3760,
      "Air": 3761,
      "Day": 3762,
      "East": 3763,
      "Nov": 3764,
      "November": 3765,
      "cit": 3766,
      "drop": 3767,
      "lose": 3768,
      "##ze": 3769,
      "##orith": 3770,
      "##idge": 3771,
      "##rown": 3772,
      "compl": 3773,
      "##actions": 3774,
      "manufact": 3775,
      "genetic": 3776,
      "##lands": 3777,
      "install": 3778,
      "leading": 3779,
      "communic": 3780,
      "meaning": 3781,
      "Google": 3782,
      "Mex": 3783,
      "Democratic": 3784,
      "Study": 3785,
      "culture": 3786,
      "Germany": 3787,
      "weapons": 3788,
      "title": 3789,
      "travel": 3790,
      "500": 3791,
      "Rob": 3792,
      "date": 3793,
      "danger": 3794,
      "society": 3795,
      "ut": 3796,
      "##lt": 3797,
      "##fort": 3798,
      "although": 3799,
      "upon": 3800,
      "contribut": 3801,
      "ens": 3802,
      "interaction": 3803,
      "attention": 3804,
      "emb": 3805,
      "systems": 3806,
      "increasing": 3807,
      "explain": 3808,
      "Indian": 3809,
      "movement": 3810,
      "caused": 3811,
      "etc": 3812,
      "learn": 3813,
      "containers": 3814,
      "challeng": 3815,
      "Smith": 3816,
      "kids": 3817,
      "senior": 3818,
      "48": 3819,
      "During": 3820,
      "High": 3821,
      "Lab": 3822,
      "Oh": 3823,
      "cab": 3824,
      "hous": 3825,
      "tend": 3826,
      "##iers": 3827,
      "##AM": 3828,
      "whatever": 3829,
      "haven": 3830,
      "##ements": 3831,
      "##agon": 3832,
      "##ivity": 3833,
      "##usive": 3834,
      "trust": 3835,
      "willing": 3836,
      "##ounds": 3837,
      "##ously": 3838,
      "offensive": 3839,
      "dise": 3840,
      "teach": 3841,
      "knew": 3842,
      "couldn": 3843,
      "features": 3844,
      "writing": 3845,
      "throughout": 3846,
      "speed": 3847,
      "Add": 3848,
      "Canadian": 3849,
      "sexual": 3850,
      "allocator": 3851,
      "existing": 3852,
      "doubt": 3853,
      "items": 3854,
      "Party": 3855,
      "credit": 3856,
      "Turk": 3857,
      "algorith": 3858,
      "75": 3859,
      "Top": 3860,
      "cards": 3861,
      "fast": 3862,
      "kick": 3863,
      "mill": 3864,
      "mechan": 3865,
      "paid": 3866,
      "song": 3867,
      "tal": 3868,
      "tur": 3869,
      "”.": 3870,
      "##atively": 3871,
      "##enge": 3872,
      "##isl": 3873,
      "stra": 3874,
      "##ession": 3875,
      "adop": 3876,
      "prec": 3877,
      "efforts": 3878,
      "student": 3879,
      "knows": 3880,
      "veh": 3881,
      "owners": 3882,
      "guys": 3883,
      "box": 3884,
      "##arried": 3885,
      "testing": 3886,
      "modern": 3887,
      "continued": 3888,
      "charge": 3889,
      "Science": 3890,
      "movie": 3891,
      "estab": 3892,
      "McC": 3893,
      "eventually": 3894,
      "opportunity": 3895,
      "Id": 3896,
      "NAS": 3897,
      "draft": 3898,
      "fully": 3899,
      "rock": 3900,
      "##cial": 3901,
      "##arp": 3902,
      "condit": 3903,
      "perm": 3904,
      "appar": 3905,
      "blog": 3906,
      "maybe": 3907,
      "produced": 3908,
      "2009": 3909,
      "models": 3910,
      "opened": 3911,
      "interesting": 3912,
      "deliver": 3913,
      "failed": 3914,
      "sources": 3915,
      "Super": 3916,
      "document": 3917,
      "college": 3918,
      "panel": 3919,
      "Court": 3920,
      "conditions": 3921,
      ".’": 3922,
      "37": 3923,
      "River": 3924,
      "UN": 3925,
      "ahead": 3926,
      "jack": 3927,
      "north": 3928,
      "nature": 3929,
      "sle": 3930,
      "wear": 3931,
      "##ham": 3932,
      "##ford": 3933,
      "##LA": 3934,
      "##erve": 3935,
      "##inary": 3936,
      "##ston": 3937,
      "ste": 3938,
      "##sequ": 3939,
      "##oses": 3940,
      "league": 3941,
      "Ste": 3942,
      "##encing": 3943,
      "Another": 3944,
      "complete": 3945,
      "ideas": 3946,
      "details": 3947,
      "##loyment": 3948,
      "speak": 3949,
      "clearly": 3950,
      "receive": 3951,
      "##overed": 3952,
      "encour": 3953,
      "Image": 3954,
      "immediately": 3955,
      "George": 3956,
      "bottom": 3957,
      "01": 3958,
      "Big": 3959,
      "ge": 3960,
      "table": 3961,
      "##uate": 3962,
      "##light": 3963,
      "##vant": 3964,
      "##bon": 3965,
      "##unk": 3966,
      "##apt": 3967,
      "compared": 3968,
      "unf": 3969,
      "Chin": 3970,
      "##ension": 3971,
      "prevent": 3972,
      "attract": 3973,
      "decl": 3974,
      "##othes": 3975,
      "photo": 3976,
      "region": 3977,
      "Arab": 3978,
      "image": 3979,
      "opin": 3980,
      "lawy": 3981,
      "effective": 3982,
      "allowed": 3983,
      "Christie": 3984,
      "changed": 3985,
      "suggests": 3986,
      "School": 3987,
      "killed": 3988,
      "pressure": 3989,
      "##vertisement": 3990,
      "Follow": 3991,
      "Mike": 3992,
      "Other": 3993,
      "Tod": 3994,
      "##aut": 3995,
      "##oes": 3996,
      "##ww": 3997,
      "tool": 3998,
      "##acts": 3999,
      "##imately": 4000,
      "##osh": 4001,
      "yourself": 4002,
      "##ruary": 4003,
      "decades": 4004,
      "highest": 4005,
      "boy": 4006,
      "Chris": 4007,
      "Minister": 4008,
      "Police": 4009,
      "natural": 4010,
      "Sanders": 4011,
      "February": 4012,
      "straight": 4013,
      "65": 4014,
      "Mer": 4015,
      "M19": 4016,
      "died": 4017,
      "gra": 4018,
      "gender": 4019,
      "ice": 4020,
      "vector": 4021,
      "www": 4022,
      "##uke": 4023,
      "##aled": 4024,
      "style": 4025,
      "##ulations": 4026,
      "exch": 4027,
      "notice": 4028,
      "##izz": 4029,
      "dism": 4030,
      "##iance": 4031,
      "##ensen": 4032,
      "remains": 4033,
      "happy": 4034,
      "century": 4035,
      "explained": 4036,
      "funding": 4037,
      "previously": 4038,
      "safety": 4039,
      "Institute": 4040,
      "reached": 4041,
      "message": 4042,
      "computer": 4043,
      "Williams": 4044,
      "financial": 4045,
      "32": 4046,
      "80": 4047,
      "TH": 4048,
      "\\/": 4049,
      "fat": 4050,
      "fine": 4051,
      "file": 4052,
      "nom": 4053,
      "oil": 4054,
      "rif": 4055,
      "touch": 4056,
      "##eah": 4057,
      "##lied": 4058,
      "##lock": 4059,
      "##coin": 4060,
      "##ga": 4061,
      "##EN": 4062,
      "##itor": 4063,
      "##acing": 4064,
      "troub": 4065,
      "compon": 4066,
      "##erved": 4067,
      "feed": 4068,
      "highly": 4069,
      "supposed": 4070,
      "acqu": 4071,
      "earth": 4072,
      "conflic": 4073,
      "moved": 4074,
      "initial": 4075,
      "towards": 4076,
      "damage": 4077,
      "Conserv": 4078,
      "candidate": 4079,
      "illegal": 4080,
      "()": 4081,
      "39": 4082,
      "Blo": 4083,
      "Coun": 4084,
      "Die": 4085,
      "God": 4086,
      "Mal": 4087,
      "Wall": 4088,
      "cash": 4089,
      "mission": 4090,
      "tour": 4091,
      "wide": 4092,
      "##ien": 4093,
      "##iqu": 4094,
      "##ipping": 4095,
      "##cil": 4096,
      "##ney": 4097,
      "##zz": 4098,
      "##isions": 4099,
      "##eld": 4100,
      "##owl": 4101,
      "##amer": 4102,
      "##ategy": 4103,
      "spl": 4104,
      "##raq": 4105,
      "peace": 4106,
      "screen": 4107,
      "##lined": 4108,
      "finding": 4109,
      "followed": 4110,
      "##evil": 4111,
      "occurr": 4112,
      "professional": 4113,
      "container": 4114,
      "summer": 4115,
      "favorite": 4116,
      "individuals": 4117,
      "skills": 4118,
      "AP": 4119,
      "CH": 4120,
      "Cle": 4121,
      "Dis": 4122,
      "Em": 4123,
      "Gold": 4124,
      "Iraq": 4125,
      "Let": 4126,
      "eth": 4127,
      "sens": 4128,
      "uint": 4129,
      "throw": 4130,
      "##iny": 4131,
      "##orter": 4132,
      "##urd": 4133,
      "noted": 4134,
      "##osition": 4135,
      "traff": 4136,
      "scen": 4137,
      "despite": 4138,
      "positive": 4139,
      "increased": 4140,
      "researchers": 4141,
      "protest": 4142,
      "tells": 4143,
      "internet": 4144,
      "focused": 4145,
      "England": 4146,
      "extremely": 4147,
      "benefits": 4148,
      "purpose": 4149,
      "\"]": 4150,
      "++": 4151,
      "II": 4152,
      "Mod": 4153,
      "Power": 4154,
      "bod": 4155,
      "hyp": 4156,
      "mail": 4157,
      "pul": 4158,
      "tick": 4159,
      "##ores": 4160,
      "##itut": 4161,
      "##ici": 4162,
      "stock": 4163,
      "concept": 4164,
      "tra": 4165,
      "agree": 4166,
      "income": 4167,
      "myself": 4168,
      "minor": 4169,
      "guard": 4170,
      "flag": 4171,
      "Tex": 4172,
      "issued": 4173,
      "correct": 4174,
      "advant": 4175,
      "explan": 4176,
      "powerful": 4177,
      "interested": 4178,
      "appeared": 4179,
      "moving": 4180,
      "Two": 4181,
      "analy": 4182,
      "growing": 4183,
      "English": 4184,
      "influence": 4185,
      "predict": 4186,
      "NASA": 4187,
      "DC": 4188,
      "Int": 4189,
      "MM": 4190,
      "NH": 4191,
      "ON": 4192,
      "Serv": 4193,
      "Since": 4194,
      "][": 4195,
      "blo": 4196,
      "fa": 4197,
      "ign": 4198,
      "wall": 4199,
      "##he": 4200,
      "##aud": 4201,
      "##mon": 4202,
      "##night": 4203,
      "##edom": 4204,
      "##lebr": 4205,
      "##semb": 4206,
      "conference": 4207,
      "spend": 4208,
      "##ikes": 4209,
      "finally": 4210,
      "functions": 4211,
      "winning": 4212,
      "##verse": 4213,
      "letter": 4214,
      "pattern": 4215,
      "##while": 4216,
      "ess": 4217,
      "racial": 4218,
      "sales": 4219,
      "meeting": 4220,
      "Street": 4221,
      "Chinese": 4222,
      "36": 4223,
      "=\"": 4224,
      "Gar": 4225,
      "Human": 4226,
      "Ple": 4227,
      "Pac": 4228,
      "ban": 4229,
      "pair": 4230,
      "rob": 4231,
      "wild": 4232,
      "##list": 4233,
      "##ias": 4234,
      "##vil": 4235,
      "##OW": 4236,
      "##outhern": 4237,
      "##asc": 4238,
      "##lection": 4239,
      "##ented": 4240,
      "##lying": 4241,
      "stated": 4242,
      "stories": 4243,
      "##ersey": 4244,
      "iter": 4245,
      "##ifying": 4246,
      "chem": 4247,
      "##antly": 4248,
      "spread": 4249,
      "Weiss": 4250,
      "attorney": 4251,
      "ended": 4252,
      "Any": 4253,
      "helped": 4254,
      "corpor": 4255,
      "transfer": 4256,
      "belief": 4257,
      "easier": 4258,
      "operations": 4259,
      "Christian": 4260,
      "temper": 4261,
      "##----": 4262,
      "destro": 4263,
      "condition": 4264,
      "voice": 4265,
      "degree": 4266,
      "clean": 4267,
      "43": 4268,
      "::": 4269,
      "Bo": 4270,
      "GM": 4271,
      "Je": 4272,
      "father": 4273,
      "park": 4274,
      "path": 4275,
      "som": 4276,
      "south": 4277,
      "section": 4278,
      "##uk": 4279,
      "##to": 4280,
      "##ken": 4281,
      "##iner": 4282,
      "##ida": 4283,
      "reven": 4284,
      "commer": 4285,
      "door": 4286,
      "meant": 4287,
      "uns": 4288,
      "unique": 4289,
      "Char": 4290,
      "scr": 4291,
      "herit": 4292,
      "strategy": 4293,
      "actual": 4294,
      "Once": 4295,
      "brand": 4296,
      "provides": 4297,
      "Reg": 4298,
      "increases": 4299,
      "easily": 4300,
      "options": 4301,
      "failure": 4302,
      "Islamic": 4303,
      "negative": 4304,
      "##ruption": 4305,
      "counter": 4306,
      "International": 4307,
      "language": 4308,
      "behavior": 4309,
      "citiz": 4310,
      "Er": 4311,
      "James": 4312,
      "Last": 4313,
      "Like": 4314,
      "Ms": 4315,
      "Ma": 4316,
      "Nor": 4317,
      "Test": 4318,
      "Wr": 4319,
      "aid": 4320,
      "daily": 4321,
      "fit": 4322,
      "und": 4323,
      "##ingly": 4324,
      "##iling": 4325,
      "whom": 4326,
      "sto": 4327,
      "sud": 4328,
      "truth": 4329,
      "save": 4330,
      "##acking": 4331,
      "worse": 4332,
      "displ": 4333,
      "knowledge": 4334,
      "request": 4335,
      "construct": 4336,
      "conservatism": 4337,
      "reflect": 4338,
      "miles": 4339,
      "agreed": 4340,
      "eyes": 4341,
      "##board": 4342,
      "alleged": 4343,
      "General": 4344,
      "Australia": 4345,
      "hundreds": 4346,
      "jacket": 4347,
      "Diego": 4348,
      "52": 4349,
      "Bank": 4350,
      "Fox": 4351,
      "Us": 4352,
      "award": 4353,
      "journal": 4354,
      "lic": 4355,
      "laugh": 4356,
      "lines": 4357,
      "mount": 4358,
      "tag": 4359,
      "##lor": 4360,
      "##iable": 4361,
      "##kin": 4362,
      "##wise": 4363,
      "##ero": 4364,
      "##alt": 4365,
      "##itely": 4366,
      "##icient": 4367,
      "##uts": 4368,
      "##utely": 4369,
      "##ami": 4370,
      "qual": 4371,
      "France": 4372,
      "guess": 4373,
      "imag": 4374,
      "sett": 4375,
      "sched": 4376,
      "color": 4377,
      "asking": 4378,
      "advoc": 4379,
      "developed": 4380,
      "Prince": 4381,
      "conclud": 4382,
      "allows": 4383,
      "occas": 4384,
      "fighting": 4385,
      "origin": 4386,
      "streets": 4387,
      "football": 4388,
      "challenge": 4389,
      "determin": 4390,
      "slightly": 4391,
      "Hind": 4392,
      "Kim": 4393,
      "Los": 4394,
      "Sy": 4395,
      "cy": 4396,
      "fear": 4397,
      "gay": 4398,
      "ren": 4399,
      "rough": 4400,
      "tack": 4401,
      "tough": 4402,
      "wid": 4403,
      "wife": 4404,
      "##hat": 4405,
      "##OS": 4406,
      "thus": 4407,
      "##iced": 4408,
      "##ota": 4409,
      "##lyn": 4410,
      "##room": 4411,
      "##ading": 4412,
      "##ola": 4413,
      "store": 4414,
      "stage": 4415,
      "##irth": 4416,
      "arm": 4417,
      "recru": 4418,
      "scene": 4419,
      "appropri": 4420,
      "parties": 4421,
      "##arkar": 4422,
      "192": 4423,
      "accur": 4424,
      "##ocked": 4425,
      "Army": 4426,
      "##uclear": 4427,
      "survey": 4428,
      "legisl": 4429,
      "Conc": 4430,
      "organization": 4431,
      "Association": 4432,
      "authorities": 4433,
      "double": 4434,
      "traditional": 4435,
      "successful": 4436,
      "customers": 4437,
      "33": 4438,
      "70": 4439,
      "Jay": 4440,
      "Kr": 4441,
      "Ro": 4442,
      "Win": 4443,
      "named": 4444,
      "##ters": 4445,
      "##gen": 4446,
      "##ED": 4447,
      "##ares": 4448,
      "##icles": 4449,
      "##oti": 4450,
      "stick": 4451,
      "##imb": 4452,
      "##uses": 4453,
      "shown": 4454,
      "##arden": 4455,
      "Star": 4456,
      "incident": 4457,
      "##issions": 4458,
      "crime": 4459,
      "setting": 4460,
      "Blue": 4461,
      "paying": 4462,
      "potentially": 4463,
      "violence": 4464,
      "update": 4465,
      "heavy": 4466,
      "Savarkar": 4467,
      "Government": 4468,
      "Texas": 4469,
      "49": 4470,
      "Bet": 4471,
      "Free": 4472,
      "Mad": 4473,
      "Micro": 4474,
      "Rub": 4475,
      "cities": 4476,
      "mother": 4477,
      "male": 4478,
      "rise": 4479,
      "rule": 4480,
      "ton": 4481,
      "##equ": 4482,
      "##ding": 4483,
      "##field": 4484,
      "##aly": 4485,
      "##ilies": 4486,
      "##olic": 4487,
      "anc": 4488,
      "##ulated": 4489,
      "fresh": 4490,
      "##ops": 4491,
      "wealth": 4492,
      "suc": 4493,
      "##andom": 4494,
      "enem": 4495,
      "##izes": 4496,
      "unp": 4497,
      "##aves": 4498,
      "French": 4499,
      "##ribution": 4500,
      "signed": 4501,
      "requires": 4502,
      "parents": 4503,
      "Scott": 4504,
      "passed": 4505,
      "interests": 4506,
      "Columb": 4507,
      "generally": 4508,
      "identity": 4509,
      "option": 4510,
      "##ortunately": 4511,
      "critical": 4512,
      "Korean": 4513,
      "strugg": 4514,
      "participants": 4515,
      "massive": 4516,
      "necessary": 4517,
      "dogm": 4518,
      "Richard": 4519,
      "##32_t": 4520,
      "41": 4521,
      "55": 4522,
      "90": 4523,
      "?\"": 4524,
      "Are": 4525,
      "Bill": 4526,
      "Cap": 4527,
      "Hot": 4528,
      "IR": 4529,
      "Ned": 4530,
      "Ry": 4531,
      "Sams": 4532,
      "Water": 4533,
      "die": 4534,
      "gain": 4535,
      "mur": 4536,
      "roll": 4537,
      "swe": 4538,
      "##hib": 4539,
      "##_ty": 4540,
      "##ps": 4541,
      "##put": 4542,
      "##more": 4543,
      "##gency": 4544,
      "##ID": 4545,
      "##bre": 4546,
      "theory": 4547,
      "forced": 4548,
      "##umes": 4549,
      "shared": 4550,
      "notes": 4551,
      "##ortion": 4552,
      "plant": 4553,
      "eval": 4554,
      "appeal": 4555,
      "partner": 4556,
      "becomes": 4557,
      "##ground": 4558,
      "##ontin": 4559,
      "designers": 4560,
      "continues": 4561,
      "politic": 4562,
      "happens": 4563,
      "families": 4564,
      "visit": 4565,
      "discussion": 4566,
      "entirely": 4567,
      "circum": 4568,
      "radio": 4569,
      "Flor": 4570,
      "exercise": 4571,
      "Lowen": 4572,
      "faith": 4573,
      "Please": 4574,
      "somew": 4575,
      "Columbia": 4576,
      "Samsung": 4577,
      "##_type": 4578,
      "Mag": 4579,
      "PC": 4580,
      "Sun": 4581,
      "Van": 4582,
      "Yeah": 4583,
      "categ": 4584,
      "dow": 4585,
      "hum": 4586,
      "ir": 4587,
      "map": 4588,
      "pull": 4589,
      "vill": 4590,
      "##down": 4591,
      "##ios": 4592,
      "##LL": 4593,
      "##EO": 4594,
      "##iser": 4595,
      "##elly": 4596,
      "Those": 4597,
      "##amb": 4598,
      "##ceed": 4599,
      "##estival": 4600,
      "places": 4601,
      "compil": 4602,
      "expand": 4603,
      "incred": 4604,
      "193": 4605,
      "adding": 4606,
      "pointed": 4607,
      "produce": 4608,
      "showing": 4609,
      "2007": 4610,
      "fourth": 4611,
      "basic": 4612,
      "records": 4613,
      "Apple": 4614,
      "Commission": 4615,
      "Office": 4616,
      "seeking": 4617,
      "Syria": 4618,
      "epis": 4619,
      "normal": 4620,
      "confirmed": 4621,
      "Angeles": 4622,
      "Mexico": 4623,
      "M1918": 4624,
      "bodies": 4625,
      "Bit": 4626,
      "Card": 4627,
      "Ont": 4628,
      "Pi": 4629,
      "Roy": 4630,
      "bal": 4631,
      "catch": 4632,
      "dark": 4633,
      "pitch": 4634,
      "sell": 4635,
      "wish": 4636,
      "##hy": 4637,
      "##here": 4638,
      "##eat": 4639,
      "##dd": 4640,
      "##oly": 4641,
      "##face": 4642,
      "##IA": 4643,
      "##icip": 4644,
      "##eted": 4645,
      "church": 4646,
      "Who": 4647,
      "Web": 4648,
      "accounts": 4649,
      "##amples": 4650,
      "2003": 4651,
      "completed": 4652,
      "##lines": 4653,
      "images": 4654,
      "depend": 4655,
      "wins": 4656,
      "Advertisement": 4657,
      "claimed": 4658,
      "programs": 4659,
      "basically": 4660,
      "charged": 4661,
      "Brook": 4662,
      "Despite": 4663,
      "scientists": 4664,
      "virtual": 4665,
      "dropped": 4666,
      "absolutely": 4667,
      "resources": 4668,
      "intrusive": 4669,
      "algorithm": 4670,
      "47": 4671,
      "51": 4672,
      "Ber": 4673,
      "Both": 4674,
      "CN": 4675,
      "Ener": 4676,
      "Mil": 4677,
      "Pet": 4678,
      "Que": 4679,
      "Tor": 4680,
      "Your": 4681,
      "cast": 4682,
      "mist": 4683,
      "pet": 4684,
      "task": 4685,
      "”,": 4686,
      "##gu": 4687,
      "##zen": 4688,
      "##wide": 4689,
      "##any": 4690,
      "##lege": 4691,
      "##rose": 4692,
      "##irgin": 4693,
      "trig": 4694,
      "##antic": 4695,
      "arms": 4696,
      "##soft": 4697,
      "otherwise": 4698,
      "prem": 4699,
      "industr": 4700,
      "seeing": 4701,
      "calling": 4702,
      "assum": 4703,
      "drive": 4704,
      "governor": 4705,
      "hearing": 4706,
      "markets": 4707,
      "serve": 4708,
      "standing": 4709,
      "posted": 4710,
      "elements": 4711,
      "arrested": 4712,
      "excited": 4713,
      "Carl": 4714,
      "videos": 4715,
      "summ": 4716,
      "division": 4717,
      "requirements": 4718,
      "weapon": 4719,
      "regarding": 4720,
      "conducted": 4721,
      "estimates": 4722,
      "Roberts": 4723,
      "mentioned": 4724,
      "advantage": 4725,
      "Microsoft": 4726,
      "Florida": 4727,
      "Bitcoin": 4728,
      "Ontario": 4729,
      "46": 4730,
      "AC": 4731,
      "AM": 4732,
      "Braz": 4733,
      "Daily": 4734,
      "Game": 4735,
      "Matt": 4736,
      "Rel": 4737,
      "Zeal": 4738,
      "core": 4739,
      "har": 4740,
      "hate": 4741,
      "tim": 4742,
      "##ugg": 4743,
      "##_iter": 4744,
      "##lies": 4745,
      "##iest": 4746,
      "##ym": 4747,
      "##IC": 4748,
      "##AC": 4749,
      "##onom": 4750,
      "##iders": 4751,
      "Their": 4752,
      "##ago": 4753,
      "##ews": 4754,
      "weak": 4755,
      "weather": 4756,
      "sup": 4757,
      "sugar": 4758,
      "##anted": 4759,
      "goals": 4760,
      "worst": 4761,
      "spir": 4762,
      "sports": 4763,
      "##bert": 4764,
      "194": 4765,
      "Trans": 4766,
      "decade": 4767,
      "feature": 4768,
      "minute": 4769,
      "2006": 4770,
      "##arri": 4771,
      "relevant": 4772,
      "Att": 4773,
      "##reme": 4774,
      "Prof": 4775,
      "argued": 4776,
      "Group": 4777,
      "management": 4778,
      "Exp": 4779,
      "professor": 4780,
      "##ructure": 4781,
      "##iju": 4782,
      "raised": 4783,
      "Instead": 4784,
      "concerned": 4785,
      "Palest": 4786,
      "millions": 4787,
      "Bloom": 4788,
      "Zealand": 4789,
      "\":": 4790,
      "):": 4791,
      "Ac": 4792,
      "Cath": 4793,
      "Found": 4794,
      "Jersey": 4795,
      "Ole": 4796,
      "Sub": 4797,
      "Tom": 4798,
      "Watch": 4799,
      "aim": 4800,
      "gather": 4801,
      "kept": 4802,
      "lands": 4803,
      "nice": 4804,
      "nuclear": 4805,
      "ped": 4806,
      "pun": 4807,
      "rich": 4808,
      "##ront": 4809,
      "##iw": 4810,
      "##ipped": 4811,
      "##kel": 4812,
      "##EC": 4813,
      "##enty": 4814,
      "##ecution": 4815,
      "##agues": 4816,
      "##aked": 4817,
      "org": 4818,
      "offers": 4819,
      "offered": 4820,
      "##ordin": 4821,
      "twitter": 4822,
      "valid": 4823,
      "feeling": 4824,
      "affect": 4825,
      "purs": 4826,
      "domin": 4827,
      "solid": 4828,
      "equip": 4829,
      "Carol": 4830,
      "documents": 4831,
      "launched": 4832,
      "scientific": 4833,
      "responsible": 4834,
      "Iran": 4835,
      "application": 4836,
      "celebr": 4837,
      "cells": 4838,
      "##igrants": 4839,
      "experiment": 4840,
      "##forcement": 4841,
      "structure": 4842,
      "conversation": 4843,
      "victims": 4844,
      "Author": 4845,
      "spokesman": 4846,
      "ensure": 4847,
      "opinion": 4848,
      "Today": 4849,
      "occurred": 4850,
      "##_iterator": 4851,
      "##ijuana": 4852,
      "53": 4853,
      "Alex": 4854,
      "Cost": 4855,
      "Each": 4856,
      "Virgin": 4857,
      "Western": 4858,
      "fan": 4859,
      "homes": 4860,
      "length": 4861,
      "nine": 4862,
      "##uild": 4863,
      "##__": 4864,
      "##ipp": 4865,
      "##atically": 4866,
      "##ushing": 4867,
      "##abb": 4868,
      "ord": 4869,
      "Stone": 4870,
      "##ishing": 4871,
      "partners": 4872,
      "Health": 4873,
      "accomp": 4874,
      "feet": 4875,
      "minister": 4876,
      "brain": 4877,
      "remaining": 4878,
      "##ype": 4879,
      "factor": 4880,
      "##phone": 4881,
      "generation": 4882,
      "scored": 4883,
      "specifically": 4884,
      "understanding": 4885,
      "creating": 4886,
      "##lusion": 4887,
      "Again": 4888,
      "benefit": 4889,
      "exception": 4890,
      "estimated": 4891,
      "Robert": 4892,
      "##cription": 4893,
      "separate": 4894,
      "dollars": 4895,
      "wonder": 4896,
      "associated": 4897,
      "template": 4898,
      "uint32_t": 4899,
      "murder": 4900,
      "300": 4901,
      "44": 4902,
      "Del": 4903,
      "Hall": 4904,
      "Mont": 4905,
      "Op": 4906,
      "Sam": 4907,
      "iP": 4908,
      "losing": 4909,
      "none": 4910,
      "random": 4911,
      "van": 4912,
      "wer": 4913,
      "##_s": 4914,
      "##vention": 4915,
      "##20": 4916,
      "##erate": 4917,
      "##alty": 4918,
      "##itz": 4919,
      "##itar": 4920,
      "beer": 4921,
      "##uries": 4922,
      "##ager": 4923,
      "shape": 4924,
      "prison": 4925,
      "plays": 4926,
      "explicit": 4927,
      "##igned": 4928,
      "##iants": 4929,
      "##ished": 4930,
      "prep": 4931,
      "prefer": 4932,
      "cris": 4933,
      "##ockey": 4934,
      "commission": 4935,
      "defined": 4936,
      "remark": 4937,
      "remained": 4938,
      "assault": 4939,
      "##iox": 4940,
      "emails": 4941,
      "typically": 4942,
      "possibility": 4943,
      "center": 4944,
      "Phil": 4945,
      "Conway": 4946,
      "Justice": 4947,
      "announce": 4948,
      "raise": 4949,
      "learning": 4950,
      "matching": 4951,
      "copy": 4952,
      "methods": 4953,
      "waiting": 4954,
      "definitely": 4955,
      "finished": 4956,
      "satis": 4957,
      "African": 4958,
      "##know": 4959,
      "vehicle": 4960,
      "sleep": 4961,
      "Council": 4962,
      "traffic": 4963,
      "downt": 4964,
      "38": 4965,
      "Bre": 4966,
      "Mi": 4967,
      "Mount": 4968,
      "Net": 4969,
      "Rock": 4970,
      "au": 4971,
      "ath": 4972,
      "bag": 4973,
      "battle": 4974,
      "sand": 4975,
      "send": 4976,
      "sites": 4977,
      "void": 4978,
      "##sen": 4979,
      "##ci": 4980,
      "##SF": 4981,
      "##IG": 4982,
      "##wood": 4983,
      "##alax": 4984,
      "##acle": 4985,
      "asp": 4986,
      "##estr": 4987,
      "##ulate": 4988,
      "##andon": 4989,
      "spr": 4990,
      "diss": 4991,
      "Chief": 4992,
      "##obby": 4993,
      "amb": 4994,
      "feels": 4995,
      "driven": 4996,
      "central": 4997,
      "Scot": 4998,
      "largely": 4999,
      "views": 5000,
      "Belg": 5001,
      "choose": 5002,
      "Def": 5003,
      "races": 5004,
      "missing": 5005,
      "figures": 5006,
      "magn": 5007,
      "magaz": 5008,
      "Paris": 5009,
      "automatic": 5010,
      "GOP": 5011,
      "northern": 5012,
      "experienced": 5013,
      "achieve": 5014,
      "dangerous": 5015,
      "apparently": 5016,
      "dismiss": 5017,
      "conflict": 5018,
      "blood": 5019,
      "##ville": 5020,
      "destroy": 5021,
      "commercial": 5022,
      "equipment": 5023,
      "Cult": 5024,
      "Fre": 5025,
      "Jon": 5026,
      "Jones": 5027,
      "brow": 5028,
      "born": 5029,
      "bomb": 5030,
      "cook": 5031,
      "cup": 5032,
      "hang": 5033,
      "mi": 5034,
      "odd": 5035,
      "surr": 5036,
      "ult": 5037,
      "##uations": 5038,
      "##ser": 5039,
      "##ext": 5040,
      "##cel": 5041,
      "##ma": 5042,
      "##LO": 5043,
      "thr": 5044,
      "##inet": 5045,
      "##ids": 5046,
      "##uters": 5047,
      "##rovers": 5048,
      "##urb": 5049,
      "withd": 5050,
      "proced": 5051,
      "heat": 5052,
      "##uns": 5053,
      "##istan": 5054,
      "##istry": 5055,
      "trick": 5056,
      "##oster": 5057,
      "planned": 5058,
      "##endix": 5059,
      "##elled": 5060,
      "leaving": 5061,
      "##acters": 5062,
      "Inc": 5063,
      "Inter": 5064,
      "agencies": 5065,
      "telev": 5066,
      "##ressive": 5067,
      "##ertain": 5068,
      "Frank": 5069,
      "acknow": 5070,
      "Ariz": 5071,
      "discontin": 5072,
      "instance": 5073,
      "findings": 5074,
      "helping": 5075,
      "Leg": 5076,
      "supported": 5077,
      "typed": 5078,
      "values": 5079,
      "proposed": 5080,
      "McK": 5081,
      "employees": 5082,
      "identified": 5083,
      "scoring": 5084,
      "Security": 5085,
      "diet": 5086,
      "princ": 5087,
      "https": 5088,
      "motiv": 5089,
      "photos": 5090,
      "causing": 5091,
      "exchange": 5092,
      "CHD": 5093,
      "roughly": 5094,
      "63": 5095,
      "99": 5096,
      "Bowl": 5097,
      "Lake": 5098,
      "Right": 5099,
      "Sant": 5100,
      "birth": 5101,
      "cry": 5102,
      "dress": 5103,
      "hy": 5104,
      "jump": 5105,
      "luck": 5106,
      "pic": 5107,
      "rout": 5108,
      "rates": 5109,
      "san": 5110,
      "##ha": 5111,
      "##rom": 5112,
      "##LS": 5113,
      "##IT": 5114,
      "##band": 5115,
      "##aters": 5116,
      "##arch": 5117,
      "##iles": 5118,
      "##oted": 5119,
      "Thank": 5120,
      "##igan": 5121,
      "comfort": 5122,
      "##umn": 5123,
      "##usion": 5124,
      "##ials": 5125,
      "##eps": 5126,
      "expensive": 5127,
      "twice": 5128,
      "Univers": 5129,
      "driving": 5130,
      "discovered": 5131,
      "flow": 5132,
      "subm": 5133,
      "handling": 5134,
      "Lee": 5135,
      "auth": 5136,
      "characters": 5137,
      "USA": 5138,
      "##enger": 5139,
      "oppon": 5140,
      "argue": 5141,
      "affected": 5142,
      "College": 5143,
      "internal": 5144,
      "device": 5145,
      "activities": 5146,
      "variety": 5147,
      "victory": 5148,
      "Offic": 5149,
      "marijuana": 5150,
      "emergency": 5151,
      "gaming": 5152,
      "literature": 5153,
      "stopped": 5154,
      "59": 5155,
      "95": 5156,
      "Jensen": 5157,
      "Nick": 5158,
      "Public": 5159,
      "Sal": 5160,
      "Yet": 5161,
      "bits": 5162,
      "bought": 5163,
      "cod": 5164,
      "cyc": 5165,
      "fant": 5166,
      "green": 5167,
      "las": 5168,
      "##_m": 5169,
      "##eated": 5170,
      "##la": 5171,
      "##can": 5172,
      "##craft": 5173,
      "##overy": 5174,
      "##onald": 5175,
      "##arry": 5176,
      "##rey": 5177,
      "assemb": 5178,
      "##osure": 5179,
      "trip": 5180,
      "2000": 5181,
      "intent": 5182,
      "controvers": 5183,
      "adj": 5184,
      "expert": 5185,
      "##ords": 5186,
      "becoming": 5187,
      "##anges": 5188,
      "##ampions": 5189,
      "relatively": 5190,
      "amaz": 5191,
      "##weight": 5192,
      "Only": 5193,
      "brief": 5194,
      "readers": 5195,
      "emot": 5196,
      "##roll": 5197,
      "putting": 5198,
      "construction": 5199,
      "reduc": 5200,
      "carbon": 5201,
      "smaller": 5202,
      "##gins": 5203,
      "afford": 5204,
      "##yright": 5205,
      "editor": 5206,
      "cuts": 5207,
      "Design": 5208,
      "property": 5209,
      "##razy": 5210,
      "necessarily": 5211,
      "Monk": 5212,
      "proposal": 5213,
      "prosecut": 5214,
      "mobile": 5215,
      "Middle": 5216,
      "THE": 5217,
      "typedef": 5218,
      "42": 5219,
      "54": 5220,
      "64": 5221,
      "Back": 5222,
      "Bern": 5223,
      "Detro": 5224,
      "Imp": 5225,
      "Kn": 5226,
      "Lou": 5227,
      "Long": 5228,
      "Mos": 5229,
      "Pay": 5230,
      "Tim": 5231,
      "Tra": 5232,
      "bab": 5233,
      "der": 5234,
      "patch": 5235,
      "##eel": 5236,
      "##Ob": 5237,
      "##west": 5238,
      "##orrow": 5239,
      "##itation": 5240,
      "##asp": 5241,
      "##acity": 5242,
      "##uty": 5243,
      "##igration": 5244,
      "storm": 5245,
      "aside": 5246,
      "##aks": 5247,
      "truly": 5248,
      "therefore": 5249,
      "Church": 5250,
      "firm": 5251,
      "attitude": 5252,
      "defensive": 5253,
      "##ologist": 5254,
      "##aju": 5255,
      "##phere": 5256,
      "statist": 5257,
      "maint": 5258,
      "seemed": 5259,
      "buildings": 5260,
      "allowing": 5261,
      "healthy": 5262,
      "taxes": 5263,
      "solution": 5264,
      "equal": 5265,
      "watching": 5266,
      "profession": 5267,
      "switch": 5268,
      "Appendix": 5269,
      "Davis": 5270,
      "Edith": 5271,
      "freedom": 5272,
      "activity": 5273,
      "eye": 5274,
      "audience": 5275,
      "neighbor": 5276,
      "shooting": 5277,
      "academic": 5278,
      "comparison": 5279,
      "introduced": 5280,
      "iterator": 5281,
      "chemical": 5282,
      "TestOb": 5283,
      "display": 5284,
      "Virginia": 5285,
      "##alaxy": 5286,
      "Detroit": 5287,
      "TestObject": 5288,
      "08": 5289,
      "ES": 5290,
      "Joe": 5291,
      "Mary": 5292,
      "Ok": 5293,
      "Out": 5294,
      "Pan": 5295,
      "banks": 5296,
      "dire": 5297,
      "east": 5298,
      "jail": 5299,
      "mental": 5300,
      "sector": 5301,
      "vir": 5302,
      "##rence": 5303,
      "##cl": 5304,
      "##coming": 5305,
      "##mas": 5306,
      "##mine": 5307,
      "ther": 5308,
      "##oms": 5309,
      "##eline": 5310,
      "##adium": 5311,
      "##olis": 5312,
      "ang": 5313,
      "shut": 5314,
      "train": 5315,
      "##udge": 5316,
      "spons": 5317,
      "click": 5318,
      "grand": 5319,
      "accused": 5320,
      "##iously": 5321,
      "attend": 5322,
      "deck": 5323,
      "blue": 5324,
      "owner": 5325,
      "providing": 5326,
      "Brad": 5327,
      "flight": 5328,
      "supporters": 5329,
      "bigger": 5330,
      "corruption": 5331,
      "transition": 5332,
      "believed": 5333,
      "believes": 5334,
      "advance": 5335,
      "talked": 5336,
      "annual": 5337,
      "restrict": 5338,
      "Before": 5339,
      "telling": 5340,
      "faces": 5341,
      "Johnson": 5342,
      "optim": 5343,
      "Mean": 5344,
      "presented": 5345,
      "Commun": 5346,
      "guns": 5347,
      "combined": 5348,
      "Second": 5349,
      "Media": 5350,
      "fairly": 5351,
      "Senate": 5352,
      "doctor": 5353,
      "correlation": 5354,
      "obviously": 5355,
      "Martin": 5356,
      "disease": 5357,
      "explanation": 5358,
      "Jeff": 5359,
      "citizens": 5360,
      "Arizona": 5361,
      "09": 5362,
      "57": 5363,
      "56": 5364,
      "Ast": 5365,
      "CEO": 5366,
      "Ev": 5367,
      "Econom": 5368,
      "Hard": 5369,
      "Kat": 5370,
      "La": 5371,
      "Pok": 5372,
      "RE": 5373,
      "Under": 5374,
      "Vide": 5375,
      "cos": 5376,
      "dat": 5377,
      "dial": 5378,
      "eat": 5379,
      "moon": 5380,
      "nations": 5381,
      "rap": 5382,
      "selling": 5383,
      "wave": 5384,
      "##han": 5385,
      "##10": 5386,
      "##bur": 5387,
      "##arrow": 5388,
      "tom": 5389,
      "onto": 5390,
      "##ayers": 5391,
      "##eme": 5392,
      "comic": 5393,
      "##essions": 5394,
      "##ighter": 5395,
      "chann": 5396,
      "##aste": 5397,
      "compare": 5398,
      "context": 5399,
      "resc": 5400,
      "residents": 5401,
      "Stan": 5402,
      "##ption": 5403,
      "##ointed": 5404,
      "thinks": 5405,
      "phil": 5406,
      "##wards": 5407,
      "lots": 5408,
      "confidence": 5409,
      "capable": 5410,
      "##atured": 5411,
      "arrived": 5412,
      "aircraft": 5413,
      "managed": 5414,
      "limit": 5415,
      "replace": 5416,
      "##going": 5417,
      "##ography": 5418,
      "negoti": 5419,
      "Lawrence": 5420,
      "Liberal": 5421,
      "##employment": 5422,
      "honest": 5423,
      "integrative": 5424,
      "independent": 5425,
      "alternative": 5426,
      "Labour": 5427,
      "crisis": 5428,
      "Miami": 5429,
      "02": 5430,
      "Bay": 5431,
      "Bus": 5432,
      "FC": 5433,
      "Hol": 5434,
      "PLA": 5435,
      "Rad": 5436,
      "Social": 5437,
      "Women": 5438,
      "bul": 5439,
      "fal": 5440,
      "fif": 5441,
      "faster": 5442,
      "rat": 5443,
      "ran": 5444,
      "vast": 5445,
      "##een": 5446,
      "##fri": 5447,
      "##gi": 5448,
      "##FC": 5449,
      "##ka": 5450,
      "##PA": 5451,
      "##oul": 5452,
      "##ita": 5453,
      "##isation": 5454,
      "##asy": 5455,
      "station": 5456,
      "##ulf": 5457,
      "prosp": 5458,
      "seasons": 5459,
      "expression": 5460,
      "agend": 5461,
      "##ache": 5462,
      "Chic": 5463,
      "##lick": 5464,
      "interactions": 5465,
      "##reek": 5466,
      "fired": 5467,
      "##ifications": 5468,
      "brother": 5469,
      "symp": 5470,
      "##phones": 5471,
      "ordered": 5472,
      "Conn": 5473,
      "fundament": 5474,
      "marketing": 5475,
      "businesses": 5476,
      "basis": 5477,
      "Secret": 5478,
      "initially": 5479,
      "observ": 5480,
      "Muslims": 5481,
      "Upd": 5482,
      "frequently": 5483,
      "lawyer": 5484,
      "rifle": 5485,
      "dogmatism": 5486,
      "Ryan": 5487,
      "Meanwhile": 5488,
      "PLAY": 5489,
      "05": 5490,
      "Bat": 5491,
      "Dom": 5492,
      "Emp": 5493,
      "Hud": 5494,
      "Journal": 5495,
      "Kev": 5496,
      "Lead": 5497,
      "Larry": 5498,
      "Sup": 5499,
      "bra": 5500,
      "cat": 5501,
      "crazy": 5502,
      "din": 5503,
      "era": 5504,
      "hat": 5505,
      "hers": 5506,
      "lin": 5507,
      "rely": 5508,
      "##aver": 5509,
      "##rig": 5510,
      "##kins": 5511,
      "##US": 5512,
      "##err": 5513,
      "##ino": 5514,
      "inqu": 5515,
      "##acher": 5516,
      "Thus": 5517,
      "##aded": 5518,
      "##ura": 5519,
      "##agr": 5520,
      "##osen": 5521,
      "chair": 5522,
      "truck": 5523,
      "spoke": 5524,
      "intended": 5525,
      "##sole": 5526,
      "actions": 5527,
      "background": 5528,
      "writes": 5529,
      "flash": 5530,
      "founder": 5531,
      "helps": 5532,
      "Reuters": 5533,
      "emissions": 5534,
      "funny": 5535,
      "infr": 5536,
      "winner": 5537,
      "libr": 5538,
      "skin": 5539,
      "operation": 5540,
      "exclus": 5541,
      "insur": 5542,
      "##umble": 5543,
      "##ourney": 5544,
      "holds": 5545,
      "discussed": 5546,
      "learned": 5547,
      "Committee": 5548,
      "falling": 5549,
      "represented": 5550,
      "connected": 5551,
      "reduce": 5552,
      "secretary": 5553,
      "digital": 5554,
      "challenges": 5555,
      "tools": 5556,
      "Merkel": 5557,
      "trouble": 5558,
      "##OWN": 5559,
      "heritability": 5560,
      "determined": 5561,
      "downtown": 5562,
      "withdraw": 5563,
      "03": 5564,
      "ASU": 5565,
      "CB": 5566,
      "DOWN": 5567,
      "Giants": 5568,
      "Sn": 5569,
      "Sum": 5570,
      "Tech": 5571,
      "amp": 5572,
      "bed": 5573,
      "carried": 5574,
      "kat": 5575,
      "nav": 5576,
      "sem": 5577,
      "sun": 5578,
      "ties": 5579,
      "##has": 5580,
      "##aire": 5581,
      "##rain": 5582,
      "##cast": 5583,
      "##gent": 5584,
      "##OG": 5585,
      "##TS": 5586,
      "##erd": 5587,
      "##inger": 5588,
      "##ali": 5589,
      "beat": 5590,
      "beaut": 5591,
      "##cher": 5592,
      "##ppers": 5593,
      "##usc": 5594,
      "hash": 5595,
      "hasn": 5596,
      "worry": 5597,
      "##ikely": 5598,
      "enforcement": 5599,
      "cloud": 5600,
      "unw": 5601,
      "unless": 5602,
      "justice": 5603,
      "Week": 5604,
      "interp": 5605,
      "prepar": 5606,
      "Union": 5607,
      "featured": 5608,
      "##icted": 5609,
      "##onto": 5610,
      "2001": 5611,
      "earn": 5612,
      "runner": 5613,
      "##ashion": 5614,
      "##ups": 5615,
      "standards": 5616,
      "opening": 5617,
      "effectively": 5618,
      "Color": 5619,
      "funds": 5620,
      "planning": 5621,
      "involve": 5622,
      "sounds": 5623,
      "##porary": 5624,
      "blocks": 5625,
      "radical": 5626,
      "concerns": 5627,
      "please": 5628,
      "animal": 5629,
      "criticism": 5630,
      "Similar": 5631,
      "assistance": 5632,
      "piece": 5633,
      "talent": 5634,
      "widely": 5635,
      "circumst": 5636,
      "Carolina": 5637,
      "television": 5638,
      "Chicago": 5639,
      "herself": 5640,
      "Ben": 5641,
      "Bur": 5642,
      "Cop": 5643,
      "Dall": 5644,
      "Dead": 5645,
      "Fire": 5646,
      "MP": 5647,
      "Mac": 5648,
      "Mah": 5649,
      "Press": 5650,
      "Rem": 5651,
      "Vol": 5652,
      "Woman": 5653,
      "ble": 5654,
      "cas": 5655,
      "caught": 5656,
      "fuel": 5657,
      "gar": 5658,
      "hus": 5659,
      "horr": 5660,
      "hurt": 5661,
      "kaju": 5662,
      "pages": 5663,
      "wel": 5664,
      "##mos": 5665,
      "##nel": 5666,
      "##gers": 5667,
      "##CA": 5668,
      "##ication": 5669,
      "##etch": 5670,
      "##rog": 5671,
      "##roid": 5672,
      "rein": 5673,
      "reaction": 5674,
      "##chester": 5675,
      "hair": 5676,
      "##artments": 5677,
      "##alls": 5678,
      "pled": 5679,
      "plus": 5680,
      "##ounding": 5681,
      "resist": 5682,
      "offering": 5683,
      "thanks": 5684,
      "recipe": 5685,
      "Where": 5686,
      "##ava": 5687,
      "graph": 5688,
      "coast": 5689,
      "committed": 5690,
      "committee": 5691,
      "positions": 5692,
      "drone": 5693,
      "##ribute": 5694,
      "experts": 5695,
      "##hips": 5696,
      "possibly": 5697,
      "empty": 5698,
      "greater": 5699,
      "Prime": 5700,
      "protection": 5701,
      "files": 5702,
      "taxp": 5703,
      "versions": 5704,
      "suggested": 5705,
      "Maybe": 5706,
      "##aughter": 5707,
      "significantly": 5708,
      "closer": 5709,
      "competition": 5710,
      "suffered": 5711,
      "##ubble": 5712,
      "causes": 5713,
      "doctors": 5714,
      "##ING": 5715,
      "label": 5716,
      "MMS": 5717,
      "intrusive_": 5718,
      "Toronto": 5719,
      "satisf": 5720,
      "Scotland": 5721,
      "##LOAD": 5722,
      "DOWNLOAD": 5723,
      "Bell": 5724,
      "CO": 5725,
      "Cro": 5726,
      "Curr": 5727,
      "Duke": 5728,
      "Egy": 5729,
      "Event": 5730,
      "Flyn": 5731,
      "Ham": 5732,
      "Jim": 5733,
      "Jew": 5734,
      "Mir": 5735,
      "Moon": 5736,
      "Year": 5737,
      "aver": 5738,
      "aware": 5739,
      "gold": 5740,
      "wing": 5741,
      "##sky": 5742,
      "##edy": 5743,
      "##outs": 5744,
      "##rete": 5745,
      "##enture": 5746,
      "react": 5747,
      "##aming": 5748,
      "##imal": 5749,
      "##agement": 5750,
      "projects": 5751,
      "##osoph": 5752,
      "sust": 5753,
      "##orted": 5754,
      "seat": 5755,
      "##antry": 5756,
      "spring": 5757,
      "closed": 5758,
      "university": 5759,
      "incor": 5760,
      "newsp": 5761,
      "##itionally": 5762,
      "aftern": 5763,
      "decks": 5764,
      "##elfare": 5765,
      "removed": 5766,
      "##urray": 5767,
      "2005": 5768,
      "flu": 5769,
      "supporting": 5770,
      "crew": 5771,
      "developing": 5772,
      "developers": 5773,
      "democr": 5774,
      "Project": 5775,
      "##ancy": 5776,
      "controlled": 5777,
      "1998": 5778,
      "arrest": 5779,
      "performed": 5780,
      "operator": 5781,
      "approx": 5782,
      "delay": 5783,
      "organiz": 5784,
      "holding": 5785,
      "totally": 5786,
      "joined": 5787,
      "replaced": 5788,
      "combination": 5789,
      "Supp": 5790,
      "bringing": 5791,
      "covered": 5792,
      "updates": 5793,
      "awes": 5794,
      "hotel": 5795,
      "seriously": 5796,
      "animals": 5797,
      "consumer": 5798,
      "applications": 5799,
      "universe": 5800,
      "Syrian": 5801,
      "filled": 5802,
      "unlikely": 5803,
      "increasingly": 5804,
      "cabal": 5805,
      "establish": 5806,
      "Pacific": 5807,
      "revenue": 5808,
      "compiler": 5809,
      "episode": 5810,
      "Catholic": 5811,
      "weren": 5812,
      "explicitly": 5813,
      "magazine": 5814,
      "Louis": 5815,
      "infrast": 5816,
      "Dallas": 5817,
      "Egypt": 5818,
      "Flynn": 5819,
      ".'": 5820,
      "400": 5821,
      "67": 5822,
      "85": 5823,
      "Camp": 5824,
      "Di": 5825,
      "Gand": 5826,
      "Kings": 5827,
      "Mel": 5828,
      "Pre": 5829,
      "Rush": 5830,
      "Sk": 5831,
      "Sour": 5832,
      "Sever": 5833,
      "Wood": 5834,
      "Wisc": 5835,
      "dream": 5836,
      "lived": 5837,
      "max": 5838,
      "marri": 5839,
      "sample": 5840,
      "wit": 5841,
      "zone": 5842,
      "##car": 5843,
      "##émon": 5844,
      "##bul": 5845,
      "##BI": 5846,
      "##eness": 5847,
      "##oral": 5848,
      "##anish": 5849,
      "##alo": 5850,
      "##isan": 5851,
      "##icine": 5852,
      "##icide": 5853,
      "##asts": 5854,
      "##asks": 5855,
      "Three": 5856,
      "consequ": 5857,
      "##abilities": 5858,
      "##andal": 5859,
      "chosen": 5860,
      "sav": 5861,
      "abuse": 5862,
      "resident": 5863,
      "likes": 5864,
      "perman": 5865,
      "thank": 5866,
      "Which": 5867,
      "##orders": 5868,
      "##obody": 5869,
      "strike": 5870,
      "strateg": 5871,
      "accident": 5872,
      "coff": 5873,
      "Andrew": 5874,
      "##oving": 5875,
      "commit": 5876,
      "remind": 5877,
      "remove": 5878,
      "assess": 5879,
      "register": 5880,
      "flat": 5881,
      "instruct": 5882,
      "handed": 5883,
      "signs": 5884,
      "schol": 5885,
      "served": 5886,
      "emphas": 5887,
      "costume": 5888,
      "Atl": 5889,
      "turns": 5890,
      "location": 5891,
      "keeps": 5892,
      "1994": 5893,
      "Colt": 5894,
      "approval": 5895,
      "patient": 5896,
      "Christmas": 5897,
      "excell": 5898,
      "occup": 5899,
      "Britain": 5900,
      "represents": 5901,
      "electric": 5902,
      "functionality": 5903,
      "picked": 5904,
      "customer": 5905,
      "candidates": 5906,
      "surprise": 5907,
      "GOOG": 5908,
      "selected": 5909,
      "platforms": 5910,
      "pieces": 5911,
      "communications": 5912,
      "mechanism": 5913,
      "declared": 5914,
      "component": 5915,
      "pulled": 5916,
      "corporate": 5917,
      "amazing": 5918,
      "false": 5919,
      "Supreme": 5920,
      "husband": 5921,
      "awesome": 5922,
      "GOOGLE": 5923,
      "07": 5924,
      "06": 5925,
      "AT": 5926,
      "Ant": 5927,
      "Dam": 5928,
      "Eric": 5929,
      "Federal": 5930,
      "Hood": 5931,
      "IN": 5932,
      "Jose": 5933,
      "Jacks": 5934,
      "Laur": 5935,
      "Main": 5936,
      "Prem": 5937,
      "Sl": 5938,
      "Sil": 5939,
      "Sign": 5940,
      "Somet": 5941,
      "Wales": 5942,
      "astr": 5943,
      "bon": 5944,
      "fly": 5945,
      "hun": 5946,
      "iron": 5947,
      "sick": 5948,
      "tact": 5949,
      "welfare": 5950,
      "##ux": 5951,
      "##uated": 5952,
      "##ae": 5953,
      "##time": 5954,
      "##iot": 5955,
      "##feld": 5956,
      "##erous": 5957,
      "##itarian": 5958,
      "##ican": 5959,
      "Though": 5960,
      "forms": 5961,
      "youth": 5962,
      "##ctic": 5963,
      "prove": 5964,
      "shift": 5965,
      "##abled": 5966,
      "##ustin": 5967,
      "##ardian": 5968,
      "##ardens": 5969,
      "##ections": 5970,
      "##ello": 5971,
      "army": 5972,
      "peat": 5973,
      "disaster": 5974,
      "manner": 5975,
      "##asser": 5976,
      "imposs": 5977,
      "desper": 5978,
      "##onsin": 5979,
      "crash": 5980,
      "Android": 5981,
      "indeed": 5982,
      "branch": 5983,
      "assets": 5984,
      "driver": 5985,
      "##resp": 5986,
      "reporters": 5987,
      "owned": 5988,
      "discr": 5989,
      "institut": 5990,
      "transport": 5991,
      "retire": 5992,
      "advis": 5993,
      "centre": 5994,
      "seconds": 5995,
      "importance": 5996,
      "profit": 5997,
      "passing": 5998,
      "keeping": 5999,
      "restaur": 6000,
      "changing": 6001,
      "Orig": 6002,
      "Someone": 6003,
      "practical": 6004,
      "Among": 6005,
      "street": 6006,
      "About": 6007,
      "starts": 6008,
      "properly": 6009,
      "steps": 6010,
      "biological": 6011,
      "Internet": 6012,
      "surprising": 6013,
      "fellow": 6014,
      "Series": 6015,
      "picture": 6016,
      "substant": 6017,
      "subscrib": 6018,
      "treated": 6019,
      "turning": 6020,
      "CNN": 6021,
      "punish": 6022,
      "Video": 6023,
      "Kevin": 6024,
      "infrastructure": 6025,
      "Wisconsin": 6026,
      "58": 6027,
      "92": 6028,
      "AB": 6029,
      "Bra": 6030,
      "Cast": 6031,
      "Dube": 6032,
      "Hy": 6033,
      "Hel": 6034,
      "LA": 6035,
      "Men": 6036,
      "Met": 6037,
      "Mik": 6038,
      "Ome": 6039,
      "PM": 6040,
      "Ped": 6041,
      "cold": 6042,
      "cars": 6043,
      "camer": 6044,
      "fencing": 6045,
      "hor": 6046,
      "harm": 6047,
      "nurs": 6048,
      "rare": 6049,
      "sid": 6050,
      "sad": 6051,
      "sitting": 6052,
      "vs": 6053,
      "vul": 6054,
      "yield": 6055,
      "yards": 6056,
      "##uable": 6057,
      "##hone": 6058,
      "##dom": 6059,
      "##cers": 6060,
      "##vest": 6061,
      "##ya": 6062,
      "##ki": 6063,
      "##DP": 6064,
      "##RO": 6065,
      "##),": 6066,
      "##arant": 6067,
      "##alle": 6068,
      "##itect": 6069,
      "forg": 6070,
      "##owers": 6071,
      "##olester": 6072,
      "##cho": 6073,
      "##ula": 6074,
      "ship": 6075,
      "##anda": 6076,
      "prices": 6077,
      "abandon": 6078,
      "##apy": 6079,
      "placed": 6080,
      "##oking": 6081,
      "compens": 6082,
      "clin": 6083,
      "clothes": 6084,
      "##ensus": 6085,
      "applied": 6086,
      "anyway": 6087,
      "##anged": 6088,
      "relief": 6089,
      "coverage": 6090,
      "active": 6091,
      "defend": 6092,
      "##isexual": 6093,
      "##xture": 6094,
      "syn": 6095,
      "Ann": 6096,
      "boost": 6097,
      "surface": 6098,
      "Rev": 6099,
      "column": 6100,
      "Spe": 6101,
      "Spec": 6102,
      "Spanish": 6103,
      "percentage": 6104,
      "advice": 6105,
      "advanced": 6106,
      "Indeed": 6107,
      "investment": 6108,
      "communities": 6109,
      "maintain": 6110,
      "arguments": 6111,
      "domest": 6112,
      "stronger": 6113,
      "watched": 6114,
      "Seattle": 6115,
      "combat": 6116,
      "Israeli": 6117,
      "volume": 6118,
      "##ributed": 6119,
      "printer": 6120,
      "analyses": 6121,
      "Contin": 6122,
      "collabor": 6123,
      "heavily": 6124,
      "calc": 6125,
      "Africa": 6126,
      "Finally": 6127,
      "edge": 6128,
      "revealed": 6129,
      "contrast": 6130,
      "purchase": 6131,
      "adopted": 6132,
      "Conservatives": 6133,
      "NHL": 6134,
      "Service": 6135,
      "sudden": 6136,
      "occasion": 6137,
      "renew": 6138,
      "sucrose": 6139,
      "Robertson": 6140,
      "##ertainty": 6141,
      "adjust": 6142,
      "direction": 6143,
      "Pokémon": 6144,
      "philosoph": 6145,
      "agenda": 6146,
      "Colorado": 6147,
      "afternoon": 6148,
      "Several": 6149,
      "Jackson": 6150,
      "Omega": 6151,
      "($": 6152,
      "1st": 6153,
      "82": 6154,
      "AN": 6155,
      "CA": 6156,
      "Div": 6157,
      "Devil": 6158,
      "Eb": 6159,
      "Kelly": 6160,
      "Mem": 6161,
      "Rod": 6162,
      "Sa": 6163,
      "Ten": 6164,
      "bench": 6165,
      "mach": 6166,
      "marg": 6167,
      "pock": 6168,
      "ring": 6169,
      "soc": 6170,
      "sides": 6171,
      "tight": 6172,
      "vice": 6173,
      "vision": 6174,
      "west": 6175,
      "##uzz": 6176,
      "##hi": 6177,
      "##do": 6178,
      "##mm": 6179,
      "##mates": 6180,
      "##mont": 6181,
      "##gment": 6182,
      "##RF": 6183,
      "##UT": 6184,
      "##**": 6185,
      "##inct": 6186,
      "##stone": 6187,
      "##stream": 6188,
      "##otes": 6189,
      "##uration": 6190,
      "##cean": 6191,
      "conce": 6192,
      "atmos": 6193,
      "##agn": 6194,
      "sharp": 6195,
      "##orting": 6196,
      "upgr": 6197,
      "Still": 6198,
      "anymore": 6199,
      "hero": 6200,
      "195": 6201,
      "supply": 6202,
      "underst": 6203,
      "shouldn": 6204,
      "shoulders": 6205,
      "##gren": 6206,
      "YouT": 6207,
      "Marc": 6208,
      "##orne": 6209,
      "param": 6210,
      "Indones": 6211,
      "breaking": 6212,
      "affili": 6213,
      "technical": 6214,
      "voted": 6215,
      "planet": 6216,
      "identify": 6217,
      "professors": 6218,
      "existence": 6219,
      "measures": 6220,
      "privacy": 6221,
      "##emption": 6222,
      "Michigan": 6223,
      "error": 6224,
      "accepted": 6225,
      "apolog": 6226,
      "measurements": 6227,
      "##liament": 6228,
      "immediate": 6229,
      "William": 6230,
      "virtually": 6231,
      "##empts": 6232,
      "consistent": 6233,
      "Glob": 6234,
      "housing": 6235,
      "Turkish": 6236,
      "delivered": 6237,
      "wearing": 6238,
      "Steve": 6239,
      "tickets": 6240,
      "legislation": 6241,
      "Concord": 6242,
      "spirit": 6243,
      "Profess": 6244,
      "Foundation": 6245,
      "Open": 6246,
      "authors": 6247,
      "##friend": 6248,
      "Jewish": 6249,
      "marriage": 6250,
      "Premier": 6251,
      "##olesterol": 6252,
      "atmosphere": 6253,
      "04": 6254,
      "74": 6255,
      "CP": 6256,
      "DE": 6257,
      "Dost": 6258,
      "Ein": 6259,
      "Ever": 6260,
      "Four": 6261,
      "Hitch": 6262,
      "Labor": 6263,
      "Max": 6264,
      "NE": 6265,
      "Pun": 6266,
      "Wik": 6267,
      "Xbox": 6268,
      "bid": 6269,
      "bound": 6270,
      "fashion": 6271,
      "hack": 6272,
      "ment": 6273,
      "ok": 6274,
      "overs": 6275,
      "rig": 6276,
      "southern": 6277,
      "zero": 6278,
      "##ugh": 6279,
      "##point": 6280,
      "##cy": 6281,
      "##ooth": 6282,
      "##DA": 6283,
      "##DR": 6284,
      "##24": 6285,
      "##war": 6286,
      "##ón": 6287,
      "##).": 6288,
      "##eno": 6289,
      "##enz": 6290,
      "##aling": 6291,
      "##ica": 6292,
      "##asury": 6293,
      "island": 6294,
      "ongoing": 6295,
      "##ada": 6296,
      "##ocal": 6297,
      "trends": 6298,
      "sees": 6299,
      "##arters": 6300,
      "##apers": 6301,
      "outr": 6302,
      "output": 6303,
      "Stein": 6304,
      "agent": 6305,
      "##ensions": 6306,
      "apply": 6307,
      "##licity": 6308,
      "impressive": 6309,
      "consult": 6310,
      "coordin": 6311,
      "decide": 6312,
      "declined": 6313,
      "knowing": 6314,
      "Franc": 6315,
      "handle": 6316,
      "serving": 6317,
      "##ception": 6318,
      "elimin": 6319,
      "famous": 6320,
      "capacity": 6321,
      "older": 6322,
      "warming": 6323,
      "warned": 6324,
      "listen": 6325,
      "Prot": 6326,
      "breast": 6327,
      "classic": 6328,
      "promised": 6329,
      "distance": 6330,
      "glass": 6331,
      "considering": 6332,
      "debut": 6333,
      "kills": 6334,
      "##ecutive": 6335,
      "broken": 6336,
      "missed": 6337,
      "##esterday": 6338,
      "##arma": 6339,
      "household": 6340,
      "responsibility": 6341,
      "Next": 6342,
      "polls": 6343,
      "injuries": 6344,
      "slowly": 6345,
      "hoping": 6346,
      "graduate": 6347,
      "proposals": 6348,
      "squad": 6349,
      "split": 6350,
      "appropriate": 6351,
      "accurate": 6352,
      "Ruby": 6353,
      "enemy": 6354,
      "IRS": 6355,
      "Harding": 6356,
      "newspaper": 6357,
      "excellent": 6358,
      "impossible": 6359,
      "Dosto": 6360,
      "Einstein": 6361,
      "2nd": 6362,
      "72": 6363,
      "Book": 6364,
      "CL": 6365,
      "Call": 6366,
      "Down": 6367,
      "Edit": 6368,
      "Fal": 6369,
      "Further": 6370,
      "FOR": 6371,
      "Hear": 6372,
      "Hunt": 6373,
      "Lat": 6374,
      "Look": 6375,
      "MS": 6376,
      "Mur": 6377,
      "Mack": 6378,
      "NY": 6379,
      "Sher": 6380,
      "Tem": 6381,
      "Walk": 6382,
      "af": 6383,
      "bunch": 6384,
      "ded": 6385,
      "flex": 6386,
      "joke": 6387,
      "narrow": 6388,
      "rot": 6389,
      "rising": 6390,
      "sin": 6391,
      "yes": 6392,
      "##hal": 6393,
      "##house": 6394,
      "##ties": 6395,
      "##ried": 6396,
      "##iation": 6397,
      "##care": 6398,
      "##mar": 6399,
      "##makers": 6400,
      "##16": 6401,
      "##bett": 6402,
      "##TV": 6403,
      "##ía": 6404,
      "##inent": 6405,
      "##orry": 6406,
      "##itors": 6407,
      "##icated": 6408,
      "##icious": 6409,
      "isol": 6410,
      "Thanks": 6411,
      "forget": 6412,
      "##owed": 6413,
      "reform": 6414,
      "##che": 6415,
      "alter": 6416,
      "##ceeds": 6417,
      "##uls": 6418,
      "cholesterol": 6419,
      "abilities": 6420,
      "button": 6421,
      "##oked": 6422,
      "cancer": 6423,
      "intel": 6424,
      "unit": 6425,
      "unif": 6426,
      "##ireless": 6427,
      "repeated": 6428,
      "apps": 6429,
      "##ulty": 6430,
      "attempts": 6431,
      "Show": 6432,
      "acts": 6433,
      "blame": 6434,
      "mayor": 6435,
      "regions": 6436,
      "province": 6437,
      "tested": 6438,
      "auto": 6439,
      "heads": 6440,
      "warning": 6441,
      "entry": 6442,
      "sky": 6443,
      "##ancing": 6444,
      "appearance": 6445,
      "1999": 6446,
      "exciting": 6447,
      "strongly": 6448,
      "reasonable": 6449,
      "Minnes": 6450,
      "elections": 6451,
      "visual": 6452,
      "##whel": 6453,
      "begins": 6454,
      "Polit": 6455,
      "Polic": 6456,
      "Central": 6457,
      "devices": 6458,
      "cultural": 6459,
      "primarily": 6460,
      "entered": 6461,
      "implemented": 6462,
      "implementation": 6463,
      "targets": 6464,
      "extreme": 6465,
      "##ognitive": 6466,
      "portable": 6467,
      "cheap": 6468,
      "opportunities": 6469,
      "Irish": 6470,
      "injury": 6471,
      "Steph": 6472,
      "Daniel": 6473,
      "carrying": 6474,
      "drinking": 6475,
      "Ohio": 6476,
      "hypothes": 6477,
      "imagine": 6478,
      "schedul": 6479,
      "System": 6480,
      "somewhat": 6481,
      "village": 6482,
      "industrial": 6483,
      "Attorney": 6484,
      "princip": 6485,
      "bitset": 6486,
      "neighborhood": 6487,
      "rapid": 6488,
      "Business": 6489,
      "Secretary": 6490,
      "inquir": 6491,
      "approximately": 6492,
      "witness": 6493,
      "institutions": 6494,
      "domestic": 6495,
      "Dostoev": 6496,
      "Minnesota": 6497,
      "!\"": 6498,
      "76": 6499,
      "88": 6500,
      "98": 6501,
      "Bas": 6502,
      "CD": 6503,
      "Direct": 6504,
      "Disc": 6505,
      "Ke": 6506,
      "Mob": 6507,
      "Mitch": 6508,
      "Ray": 6509,
      "Roll": 6510,
      "Sony": 6511,
      "Society": 6512,
      "TO": 6513,
      "Time": 6514,
      "Wear": 6515,
      "Work": 6516,
      "dra": 6517,
      "festival": 6518,
      "hell": 6519,
      "hockey": 6520,
      "lock": 6521,
      "married": 6522,
      "rally": 6523,
      "river": 6524,
      "torr": 6525,
      "yard": 6526,
      "’,": 6527,
      "##how": 6528,
      "##lation": 6529,
      "##oil": 6530,
      "##oons": 6531,
      "##gun": 6532,
      "##acement": 6533,
      "whites": 6534,
      "stood": 6535,
      "##ulous": 6536,
      "##ems": 6537,
      "##using": 6538,
      "shr": 6539,
      "shock": 6540,
      "sharing": 6541,
      "##iking": 6542,
      "##endor": 6543,
      "armed": 6544,
      "resolution": 6545,
      "enh": 6546,
      "expressed": 6547,
      "##izon": 6548,
      "manage": 6549,
      "2018": 6550,
      "newly": 6551,
      "myth": 6552,
      "desk": 6553,
      "decisions": 6554,
      "buying": 6555,
      "##ologists": 6556,
      "producers": 6557,
      "assert": 6558,
      "Arm": 6559,
      "Arctic": 6560,
      "guitar": 6561,
      "provin": 6562,
      "medium": 6563,
      "Reb": 6564,
      "Review": 6565,
      "leads": 6566,
      "config": 6567,
      "continuous": 6568,
      "retail": 6569,
      "explos": 6570,
      "articles": 6571,
      "warm": 6572,
      "speaking": 6573,
      "harder": 6574,
      "##aredevil": 6575,
      "oppos": 6576,
      "opposed": 6577,
      "argues": 6578,
      "promise": 6579,
      "programming": 6580,
      "estimate": 6581,
      "debt": 6582,
      "poly": 6583,
      "insert": 6584,
      "##standing": 6585,
      "Minimum": 6586,
      "elected": 6587,
      "Amaz": 6588,
      "raising": 6589,
      "elsewhere": 6590,
      "moments": 6591,
      "closely": 6592,
      "implementations": 6593,
      "##ographic": 6594,
      "err": 6595,
      "emerged": 6596,
      "##ylum": 6597,
      "reduced": 6598,
      "admitted": 6599,
      "surprised": 6600,
      "hopes": 6601,
      "package": 6602,
      "judge": 6603,
      "responded": 6604,
      "coalition": 6605,
      "penalty": 6606,
      "terrorist": 6607,
      "pictures": 6608,
      "survive": 6609,
      "##ihad": 6610,
      "grav": 6611,
      "earthqu": 6612,
      "cymb": 6613,
      "tackle": 6614,
      "politicians": 6615,
      "Energi": 6616,
      "Brazil": 6617,
      "Palestin": 6618,
      "cosm": 6619,
      "taxpayers": 6620,
      "intrusive_list": 6621,
      "Origin": 6622,
      "YouTube": 6623,
      "Indonesia": 6624,
      "Concordia": 6625,
      ",’": 6626,
      "600": 6627,
      "96": 6628,
      "Austin": 6629,
      "Bon": 6630,
      "Daredevil": 6631,
      "Ext": 6632,
      "Jack": 6633,
      "Lord": 6634,
      "Pent": 6635,
      "Pak": 6636,
      "Penn": 6637,
      "Tet": 6638,
      "Ve": 6639,
      "Vers": 6640,
      "Wil": 6641,
      "Warden": 6642,
      "Yang": 6643,
      "bisexual": 6644,
      "fiber": 6645,
      "gh": 6646,
      "galaxy": 6647,
      "km": 6648,
      "lit": 6649,
      "narr": 6650,
      "rid": 6651,
      "row": 6652,
      "rain": 6653,
      "sale": 6654,
      "tables": 6655,
      "tiny": 6656,
      "upper": 6657,
      "##lig": 6658,
      "##ius": 6659,
      "##ivery": 6660,
      "##fl": 6661,
      "##bs": 6662,
      "thin": 6663,
      "##ingu": 6664,
      "##real": 6665,
      "##reci": 6666,
      "##idel": 6667,
      "##utr": 6668,
      "##add": 6669,
      "##olk": 6670,
      "##iracy": 6671,
      "asylum": 6672,
      "alph": 6673,
      "##illing": 6674,
      "comics": 6675,
      "##oper": 6676,
      "weird": 6677,
      "##ells": 6678,
      "Inf": 6679,
      "express": 6680,
      "##ignment": 6681,
      "aggress": 6682,
      "script": 6683,
      "overwhel": 6684,
      "grid": 6685,
      "teen": 6686,
      "novel": 6687,
      "##reath": 6688,
      "consc": 6689,
      "##issue": 6690,
      "adds": 6691,
      "command": 6692,
      "##lesque": 6693,
      "define": 6694,
      "Fred": 6695,
      "2002": 6696,
      "2004": 6697,
      "Arch": 6698,
      "surve": 6699,
      "extent": 6700,
      "runs": 6701,
      "deploy": 6702,
      "typical": 6703,
      "confront": 6704,
      "personally": 6705,
      "puts": 6706,
      "Adv": 6707,
      "##retch": 6708,
      "kinds": 6709,
      "solar": 6710,
      "faced": 6711,
      "facing": 6712,
      "choices": 6713,
      "allocators": 6714,
      "territ": 6715,
      "improved": 6716,
      "joint": 6717,
      "publish": 6718,
      "covering": 6719,
      "convin": 6720,
      "barrel": 6721,
      "##iliar": 6722,
      "determine": 6723,
      "connection": 6724,
      "snow": 6725,
      "revolution": 6726,
      "universal": 6727,
      "improvement": 6728,
      "architect": 6729,
      "materials": 6730,
      "Treasury": 6731,
      "##pective": 6732,
      "Matth": 6733,
      "innov": 6734,
      "Turkey": 6735,
      "established": 6736,
      "Golden": 6737,
      "analyst": 6738,
      "allegedly": 6739,
      "sweet": 6740,
      "mistake": 6741,
      "Academ": 6742,
      "Authority": 6743,
      "athlet": 6744,
      "aspects": 6745,
      "lucky": 6746,
      "assembly": 6747,
      "Astro": 6748,
      "libraries": 6749,
      "insurance": 6750,
      "interpret": 6751,
      "vulner": 6752,
      "Hitchens": 6753,
      "intellect": 6754,
      "Dostoevsky": 6755,
      "!”": 6756,
      "'.": 6757,
      "))": 6758,
      "78": 6759,
      "86": 6760,
      "Az": 6761,
      "ABC": 6762,
      "Dist": 6763,
      "Ep": 6764,
      "Fund": 6765,
      "Goss": 6766,
      "Greek": 6767,
      "Il": 6768,
      "Josh": 6769,
      "Ken": 6770,
      "Lara": 6771,
      "Make": 6772,
      "Note": 6773,
      "Oak": 6774,
      "Ra": 6775,
      "Ret": 6776,
      "Rights": 6777,
      "SA": 6778,
      "ST": 6779,
      "Sar": 6780,
      "Sur": 6781,
      "Sued": 6782,
      "SRF": 6783,
      "Tal": 6784,
      "Tour": 6785,
      "Terry": 6786,
      "].": 6787,
      "bip": 6788,
      "cul": 6789,
      "cognitive": 6790,
      "dim": 6791,
      "ham": 6792,
      "journey": 6793,
      "mine": 6794,
      "matt": 6795,
      "sets": 6796,
      "soph": 6797,
      "ven": 6798,
      "##pear": 6799,
      "##dict": 6800,
      "##fortunately": 6801,
      "##greg": 6802,
      "##FP": 6803,
      "##St": 6804,
      "##Donald": 6805,
      "##TA": 6806,
      "##30": 6807,
      "##onna": 6808,
      "##atr": 6809,
      "##ania": 6810,
      "inch": 6811,
      "##roc": 6812,
      "formed": 6813,
      "reject": 6814,
      "reference": 6815,
      "reverse": 6816,
      "##ads": 6817,
      "stars": 6818,
      "##iment": 6819,
      "##imination": 6820,
      "##ivals": 6821,
      "suit": 6822,
      "pra": 6823,
      "print": 6824,
      "trail": 6825,
      "plenty": 6826,
      "butt": 6827,
      "##oken": 6828,
      "intention": 6829,
      "##ubs": 6830,
      "exposed": 6831,
      "agric": 6832,
      "unus": 6833,
      "##berry": 6834,
      "recover": 6835,
      "whenever": 6836,
      "stress": 6837,
      "##veland": 6838,
      "decent": 6839,
      "Unfortunately": 6840,
      "blow": 6841,
      "##ertification": 6842,
      "shoulder": 6843,
      "presence": 6844,
      "discip": 6845,
      "guarant": 6846,
      "Anth": 6847,
      "boat": 6848,
      "thoughts": 6849,
      "designs": 6850,
      "##arrass": 6851,
      "corner": 6852,
      "##usha": 6853,
      "150": 6854,
      "simplicity": 6855,
      "located": 6856,
      "promote": 6857,
      "affairs": 6858,
      "filed": 6859,
      "Gray": 6860,
      "funded": 6861,
      "receiving": 6862,
      "250": 6863,
      "Coal": 6864,
      "broke": 6865,
      "Centre": 6866,
      "describes": 6867,
      "immigrants": 6868,
      "updated": 6869,
      "Company": 6870,
      "regardless": 6871,
      "baseball": 6872,
      "linked": 6873,
      "lawsuit": 6874,
      "walking": 6875,
      "photograph": 6876,
      "soldiers": 6877,
      "dollar": 6878,
      "illustr": 6879,
      "embarrass": 6880,
      "songs": 6881,
      "Cleveland": 6882,
      "ethn": 6883,
      "scenes": 6884,
      "concluded": 6885,
      "originally": 6886,
      "balance": 6887,
      "pedestr": 6888,
      "prepared": 6889,
      "reducing": 6890,
      "virus": 6891,
      "Update": 6892,
      "beautif": 6893,
      "Croft": 6894,
      "coffee": 6895,
      "scholars": 6896,
      "Sometimes": 6897,
      "Ebola": 6898,
      "earthquake": 6899,
      "Suedfeld": 6900,
      "matters": 6901,
      "agricult": 6902,
      ",'": 6903,
      "AI": 6904,
      "Bad": 6905,
      "Dough": 6906,
      "Dub": 6907,
      "Eff": 6908,
      "Hist": 6909,
      "Ire": 6910,
      "Ist": 6911,
      "Ju": 6912,
      "Jes": 6913,
      "Jul": 6914,
      "Kenn": 6915,
      "Lew": 6916,
      "Lyn": 6917,
      "Murray": 6918,
      "NB": 6919,
      "None": 6920,
      "Norm": 6921,
      "Norr": 6922,
      "OT": 6923,
      "Oreg": 6924,
      "Rah": 6925,
      "Vis": 6926,
      "Wind": 6927,
      "carr": 6928,
      "daughter": 6929,
      "lie": 6930,
      "lake": 6931,
      "mort": 6932,
      "tent": 6933,
      "tun": 6934,
      "taught": 6935,
      "’.": 6936,
      "##aus": 6937,
      "##pm": 6938,
      "##ris": 6939,
      "##coh": 6940,
      "##CH": 6941,
      "##OL": 6942,
      "##zer": 6943,
      "##11": 6944,
      "##bal": 6945,
      "##ET": 6946,
      "thick": 6947,
      "##inated": 6948,
      "##anes": 6949,
      "##asm": 6950,
      "##reh": 6951,
      "##rees": 6952,
      "##oma": 6953,
      "##ilty": 6954,
      "##etime": 6955,
      "##otype": 6956,
      "##acc": 6957,
      "##ayer": 6958,
      "##adow": 6959,
      "stuck": 6960,
      "stadium": 6961,
      "prost": 6962,
      "##aints": 6963,
      "##opher": 6964,
      "##abil": 6965,
      "##ocol": 6966,
      "##istics": 6967,
      "##uster": 6968,
      "spaces": 6969,
      "upcoming": 6970,
      "##active": 6971,
      "contest": 6972,
      "advert": 6973,
      "##iper": 6974,
      "dish": 6975,
      "reput": 6976,
      "##ensity": 6977,
      "appreci": 6978,
      "anywhere": 6979,
      "Shakes": 6980,
      "actor": 6981,
      "fees": 6982,
      "##oves": 6983,
      "efficient": 6984,
      "secure": 6985,
      "ending": 6986,
      "phen": 6987,
      "regime": 6988,
      "Brian": 6989,
      "goods": 6990,
      "Level": 6991,
      "Leban": 6992,
      "publicly": 6993,
      "transform": 6994,
      "transpar": 6995,
      "numerous": 6996,
      "confident": 6997,
      "winter": 6998,
      "greatest": 6999,
      "constantly": 7000,
      "gotten": 7001,
      "artist": 7002,
      "element": 7003,
      "moves": 7004,
      "movies": 7005,
      "claiming": 7006,
      "##string": 7007,
      "equally": 7008,
      "killing": 7009,
      "Without": 7010,
      "terrible": 7011,
      "threats": 7012,
      "returned": 7013,
      "sentence": 7014,
      "describe": 7015,
      "moral": 7016,
      "initi": 7017,
      "unclear": 7018,
      "ISIS": 7019,
      "administr": 7020,
      "criticized": 7021,
      "##tainment": 7022,
      "absolute": 7023,
      "inspired": 7024,
      "detailed": 7025,
      "escape": 7026,
      "manufacturing": 7027,
      "components": 7028,
      "awarded": 7029,
      "ancient": 7030,
      "incredibly": 7031,
      "##uilding": 7032,
      "iPhone": 7033,
      "Network": 7034,
      "##_map": 7035,
      "therapy": 7036,
      "Katusha": 7037,
      "katli": 7038,
      "circumstances": 7039,
      "scheduled": 7040,
      "Tetlock": 7041,
      "Doughty": 7042,
      "Ireland": 7043,
      "Oregon": 7044,
      "Shakespear": 7045,
      "94": 7046,
      "Best": 7047,
      "Fort": 7048,
      "Falk": 7049,
      "Hans": 7050,
      "List": 7051,
      "Nations": 7052,
      "Old": 7053,
      "Put": 7054,
      "Peter": 7055,
      "Such": 7056,
      "Southern": 7057,
      "Tay": 7058,
      "],": 7059,
      "bass": 7060,
      "bond": 7061,
      "craft": 7062,
      "divers": 7063,
      "fish": 7064,
      "fits": 7065,
      "het": 7066,
      "hol": 7067,
      "lies": 7068,
      "latter": 7069,
      "mut": 7070,
      "master": 7071,
      "node": 7072,
      "ris": 7073,
      "rush": 7074,
      "tro": 7075,
      "tall": 7076,
      "vary": 7077,
      "##pg": 7078,
      "##pts": 7079,
      "##like": 7080,
      "##de": 7081,
      "##cape": 7082,
      "##ois": 7083,
      "##AL": 7084,
      "##wr": 7085,
      "##water": 7086,
      "##ena": 7087,
      "##oration": 7088,
      "##ano": 7089,
      "##reams": 7090,
      "Thous": 7091,
      "forth": 7092,
      "##urning": 7093,
      "stere": 7094,
      "stun": 7095,
      "stable": 7096,
      "stretch": 7097,
      "##ima": 7098,
      "##irty": 7099,
      "congress": 7100,
      "examples": 7101,
      "trend": 7102,
      "trial": 7103,
      "##aped": 7104,
      "worried": 7105,
      "spect": 7106,
      "dozen": 7107,
      "allies": 7108,
      "contribute": 7109,
      "Stand": 7110,
      "sole": 7111,
      "clients": 7112,
      "climb": 7113,
      "hadn": 7114,
      "unemployment": 7115,
      "tele": 7116,
      "Weiner": 7117,
      "##issipp": 7118,
      "crack": 7119,
      "crimes": 7120,
      "Albert": 7121,
      "Andre": 7122,
      "##aws": 7123,
      "Unc": 7124,
      "backed": 7125,
      "everybody": 7126,
      "writer": 7127,
      "assume": 7128,
      "smooth": 7129,
      "guilty": 7130,
      "designer": 7131,
      "ideal": 7132,
      "departments": 7133,
      "mode": 7134,
      "elite": 7135,
      "familiar": 7136,
      "constant": 7137,
      "directed": 7138,
      "##iveness": 7139,
      "brew": 7140,
      "##place": 7141,
      "passion": 7142,
      "campus": 7143,
      "prompt": 7144,
      "Const": 7145,
      "##ugar": 7146,
      "fundra": 7147,
      "operating": 7148,
      "delivery": 7149,
      "##ronic": 7150,
      "reportedly": 7151,
      "devast": 7152,
      "landing": 7153,
      "Barack": 7154,
      "closing": 7155,
      "circle": 7156,
      "##ynam": 7157,
      "creative": 7158,
      "volunt": 7159,
      "flood": 7160,
      "apartment": 7161,
      "bias": 7162,
      "civilians": 7163,
      "caption": 7164,
      "Mississipp": 7165,
      "Quick": 7166,
      "universities": 7167,
      "drawing": 7168,
      "denied": 7169,
      "Danmark": 7170,
      "experiences": 7171,
      "confirm": 7172,
      "tweeted": 7173,
      "ranked": 7174,
      "illness": 7175,
      "contributions": 7176,
      "houses": 7177,
      "diseases": 7178,
      "adopt": 7179,
      "Conservative": 7180,
      "temperature": 7181,
      "recruit": 7182,
      "Bloomberg": 7183,
      "odds": 7184,
      "discontinu": 7185,
      "controversial": 7186,
      "Stanford": 7187,
      "Techn": 7188,
      "##respond": 7189,
      "Mobile": 7190,
      "Shakespeare": 7191,
      "Mississippi": 7192,
      "3D": 7193,
      "62": 7194,
      "61": 7195,
      "93": 7196,
      "Dick": 7197,
      "Data": 7198,
      "Fors": 7199,
      "Fisher": 7200,
      "Hang": 7201,
      "Mot": 7202,
      "Pass": 7203,
      "QB": 7204,
      "Riw": 7205,
      "Sure": 7206,
      "Table": 7207,
      "Vac": 7208,
      "Wars": 7209,
      "Wels": 7210,
      "boss": 7211,
      "cache": 7212,
      "fed": 7213,
      "fle": 7214,
      "gif": 7215,
      "hiring": 7216,
      "los": 7217,
      "loved": 7218,
      "mic": 7219,
      "micro": 7220,
      "ox": 7221,
      "pin": 7222,
      "yesterday": 7223,
      "##ua": 7224,
      "##lv": 7225,
      "##rick": 7226,
      "##da": 7227,
      "##IP": 7228,
      "##ble": 7229,
      "##ining": 7230,
      "##ari": 7231,
      "##aron": 7232,
      "##astern": 7233,
      "##iled": 7234,
      "##idden": 7235,
      "##lymp": 7236,
      "##iration": 7237,
      "##tered": 7238,
      "alive": 7239,
      "console": 7240,
      "##ills": 7241,
      "chick": 7242,
      "proud": 7243,
      "selection": 7244,
      "##apter": 7245,
      "##ikring": 7246,
      "##enders": 7247,
      "##iban": 7248,
      "complic": 7249,
      "intim": 7250,
      "##ounded": 7251,
      "contains": 7252,
      "Ita": 7253,
      "##ached": 7254,
      "##auc": 7255,
      "somehow": 7256,
      "##osexual": 7257,
      "repair": 7258,
      "Champions": 7259,
      "##ensively": 7260,
      "Head": 7261,
      "struck": 7262,
      "ourselves": 7263,
      "firing": 7264,
      "desire": 7265,
      "decre": 7266,
      "highlight": 7267,
      "writ": 7268,
      "evening": 7269,
      "veget": 7270,
      "ends": 7271,
      "regul": 7272,
      "regulations": 7273,
      "Art": 7274,
      "discl": 7275,
      "boot": 7276,
      "flights": 7277,
      "persons": 7278,
      "termin": 7279,
      "surg": 7280,
      "realize": 7281,
      "depends": 7282,
      "continuation": 7283,
      "server": 7284,
      "creation": 7285,
      "valuable": 7286,
      "statements": 7287,
      "profile": 7288,
      "populations": 7289,
      "nearby": 7290,
      "faculty": 7291,
      "voting": 7292,
      "equality": 7293,
      "equival": 7294,
      "lowest": 7295,
      "resulting": 7296,
      "Belkin": 7297,
      "temporary": 7298,
      "critics": 7299,
      "Coast": 7300,
      "cutting": 7301,
      "##onym": 7302,
      "##iscal": 7303,
      "activists": 7304,
      "anticip": 7305,
      "successfully": 7306,
      "musc": 7307,
      "barely": 7308,
      "copyright": 7309,
      "colleagues": 7310,
      "Images": 7311,
      "messages": 7312,
      "##shore": 7313,
      "##etheless": 7314,
      "links": 7315,
      "definition": 7316,
      "measurement": 7317,
      "reduction": 7318,
      "targeted": 7319,
      "collective": 7320,
      "friendly": 7321,
      "improvements": 7322,
      "engineer": 7323,
      "engineering": 7324,
      "Australian": 7325,
      "historic": 7326,
      "Matoub": 7327,
      "manufactur": 7328,
      "ownership": 7329,
      "Ide": 7330,
      "lawyers": 7331,
      "##iciency": 7332,
      "##--------": 7333,
      "Board": 7334,
      "schedule": 7335,
      "Hotel": 7336,
      "petition": 7337,
      "##ioxide": 7338,
      "announcement": 7339,
      "acknowled": 7340,
      "comfortable": 7341,
      "dialect": 7342,
      "Punisher": 7343,
      "hypothesis": 7344,
      "opposite": 7345,
      "interpretation": 7346,
      "##cohol": 7347,
      "Forsikring": 7348,
      "Riwal": 7349,
      "Welsh": 7350,
      ".“": 7351,
      "81": 7352,
      "800": 7353,
      "Cry": 7354,
      "Cup": 7355,
      "Cross": 7356,
      "Custom": 7357,
      "Dut": 7358,
      "Dark": 7359,
      "Deb": 7360,
      "Gall": 7361,
      "Greg": 7362,
      "Hon": 7363,
      "Hou": 7364,
      "Hal": 7365,
      "Hig": 7366,
      "Hope": 7367,
      "Kurd": 7368,
      "Lut": 7369,
      "Mu": 7370,
      "Mess": 7371,
      "Mun": 7372,
      "Non": 7373,
      "Nation": 7374,
      "Olymp": 7375,
      "PS": 7376,
      "Rs": 7377,
      "Squ": 7378,
      "Sah": 7379,
      "Sessions": 7380,
      "Take": 7381,
      "apt": 7382,
      "coin": 7383,
      "dioxide": 7384,
      "eating": 7385,
      "fool": 7386,
      "grew": 7387,
      "grown": 7388,
      "jihad": 7389,
      "pool": 7390,
      "soci": 7391,
      "##uest": 7392,
      "##het": 7393,
      "##tr": 7394,
      "##oz": 7395,
      "##bec": 7396,
      "##wich": 7397,
      "##woman": 7398,
      "##anbul": 7399,
      "tow": 7400,
      "inher": 7401,
      "##ician": 7402,
      "##iceps": 7403,
      "##omfort": 7404,
      "##enthood": 7405,
      "##illy": 7406,
      "##sters": 7407,
      "##ecraft": 7408,
      "##othing": 7409,
      "##aying": 7410,
      "wheel": 7411,
      "##verted": 7412,
      "##earing": 7413,
      "proceeds": 7414,
      "exhib": 7415,
      "frustr": 7416,
      "franch": 7417,
      "tracks": 7418,
      "sea": 7419,
      "##ghan": 7420,
      "spots": 7421,
      "##eller": 7422,
      "##ansas": 7423,
      "upset": 7424,
      "adult": 7425,
      "explo": 7426,
      "offense": 7427,
      "evac": 7428,
      "Check": 7429,
      "##enses": 7430,
      "attending": 7431,
      "Share": 7432,
      "blacks": 7433,
      "##ificial": 7434,
      "studied": 7435,
      "##others": 7436,
      "default": 7437,
      "genes": 7438,
      "guide": 7439,
      "boys": 7440,
      "heading": 7441,
      "infantry": 7442,
      "possession": 7443,
      "artists": 7444,
      "Block": 7445,
      "##redit": 7446,
      "stands": 7447,
      "listening": 7448,
      "##aturated": 7449,
      "locations": 7450,
      "elev": 7451,
      "district": 7452,
      "distribution": 7453,
      "array": 7454,
      "refused": 7455,
      "Beach": 7456,
      "Mrs": 7457,
      "insist": 7458,
      "##otto": 7459,
      "suggesting": 7460,
      "minded": 7461,
      "identical": 7462,
      "younger": 7463,
      "resulted": 7464,
      "Redemption": 7465,
      "allocation": 7466,
      "returns": 7467,
      "salt": 7468,
      "trading": 7469,
      "variable": 7470,
      "divor": 7471,
      "Californication": 7472,
      "convention": 7473,
      "Medical": 7474,
      "thousand": 7475,
      "demonstrate": 7476,
      "regularly": 7477,
      "indicate": 7478,
      "##iante": 7479,
      "perfectly": 7480,
      "silent": 7481,
      "resource": 7482,
      "contributed": 7483,
      "##ENT": 7484,
      "acquired": 7485,
      "GMO": 7486,
      "Charl": 7487,
      "Using": 7488,
      "license": 7489,
      "Hindu": 7490,
      "wealthy": 7491,
      "Against": 7492,
      "dietary": 7493,
      "pledge": 7494,
      "permanent": 7495,
      "philosophy": 7496,
      "pocket": 7497,
      "Policy": 7498,
      "Director": 7499,
      "Pakistan": 7500,
      "Taliban": 7501,
      "Istanbul": 7502,
      "Windows": 7503,
      ",[": 7504,
      "68": 7505,
      "66": 7506,
      "77": 7507,
      "89": 7508,
      "84": 7509,
      "Bost": 7510,
      "Did": 7511,
      "Elect": 7512,
      "Fed": 7513,
      "Fair": 7514,
      "Foot": 7515,
      "Has": 7516,
      "Hay": 7517,
      "Kar": 7518,
      "Keep": 7519,
      "KOT": 7520,
      "Lo": 7521,
      "Las": 7522,
      "NS": 7523,
      "PV": 7524,
      "Ram": 7525,
      "Rus": 7526,
      "Rizz": 7527,
      "Sax": 7528,
      "Tit": 7529,
      "Tro": 7530,
      "UP": 7531,
      "burn": 7532,
      "barr": 7533,
      "hur": 7534,
      "overse": 7535,
      "por": 7536,
      "ride": 7537,
      "session": 7538,
      "tail": 7539,
      "tank": 7540,
      "tasks": 7541,
      "##under": 7542,
      "##east": 7543,
      "##lers": 7544,
      "##ipper": 7545,
      "##cow": 7546,
      "##cos": 7547,
      "##IL": 7548,
      "##IR": 7549,
      "##bro": 7550,
      "##RA": 7551,
      "##UR": 7552,
      "##EM": 7553,
      "##——": 7554,
      "##atre": 7555,
      "##oric": 7556,
      "##oria": 7557,
      "##arms": 7558,
      "##asure": 7559,
      "##eting": 7560,
      "##idity": 7561,
      "##rost": 7562,
      "forest": 7563,
      "##igation": 7564,
      "##owa": 7565,
      "##ador": 7566,
      "##ersen": 7567,
      "##illa": 7568,
      "##earn": 7569,
      "##ainable": 7570,
      "noticed": 7571,
      "##udes": 7572,
      "plate": 7573,
      "plants": 7574,
      "plastic": 7575,
      "##endo": 7576,
      "##endum": 7577,
      "outs": 7578,
      "resol": 7579,
      "Stat": 7580,
      "enth": 7581,
      "exposure": 7582,
      "Chili": 7583,
      "##ultane": 7584,
      "##onder": 7585,
      "strange": 7586,
      "190": 7587,
      "consp": 7588,
      ".\"[": 7589,
      "Asian": 7590,
      "supports": 7591,
      "bug": 7592,
      "belong": 7593,
      "Frusc": 7594,
      "genu": 7595,
      "simultane": 7596,
      "symb": 7597,
      "##lining": 7598,
      "proved": 7599,
      "Force": 7600,
      "Bron": 7601,
      "subsequ": 7602,
      "governments": 7603,
      "obt": 7604,
      "obst": 7605,
      "institution": 7606,
      "medicine": 7607,
      "colon": 7608,
      "depending": 7609,
      "marked": 7610,
      "personnel": 7611,
      "detect": 7612,
      "follows": 7613,
      "189": 7614,
      "carefully": 7615,
      "Manchester": 7616,
      "processes": 7617,
      "operate": 7618,
      "approved": 7619,
      "solve": 7620,
      "votes": 7621,
      "formal": 7622,
      "employee": 7623,
      "generate": 7624,
      "mindset": 7625,
      "fighters": 7626,
      "recorded": 7627,
      "practices": 7628,
      "privile": 7629,
      "favour": 7630,
      "Develop": 7631,
      "Edge": 7632,
      "entering": 7633,
      "attacked": 7634,
      "Peppers": 7635,
      "observed": 7636,
      "##useum": 7637,
      "fields": 7638,
      "expectations": 7639,
      "Everyone": 7640,
      "##ORE": 7641,
      "Environment": 7642,
      "capture": 7643,
      "captured": 7644,
      "referred": 7645,
      "audio": 7646,
      "injured": 7647,
      "quarterback": 7648,
      "collected": 7649,
      "naturally": 7650,
      "girls": 7651,
      "degrees": 7652,
      "window": 7653,
      "lifetime": 7654,
      "Getty": 7655,
      "square": 7656,
      "communication": 7657,
      "Additionally": 7658,
      "patterns": 7659,
      "essentially": 7660,
      "beliefs": 7661,
      "temperatures": 7662,
      "constructed": 7663,
      "Freeze": 7664,
      "Scottish": 7665,
      "M1918A": 7666,
      "remarkable": 7667,
      "browser": 7668,
      "mixture": 7669,
      "opponents": 7670,
      "Moscow": 7671,
      "tomorrow": 7672,
      "rescue": 7673,
      "Source": 7674,
      "restaurant": 7675,
      "nurses": 7676,
      "Division": 7677,
      "Amazon": 7678,
      "Epstein": 7679,
      "Norrath": 7680,
      "phenomen": 7681,
      "Thousands": 7682,
      "KOTC": 7683,
      "Frusciante": 7684,
      "97": 7685,
      "Bol": 7686,
      "Cards": 7687,
      "Deep": 7688,
      "Given": 7689,
      "Home": 7690,
      "Jac": 7691,
      "Ky": 7692,
      "Kill": 7693,
      "Meth": 7694,
      "Ol": 7695,
      "Person": 7696,
      "Ros": 7697,
      "Rog": 7698,
      "Rey": 7699,
      "Som": 7700,
      "Ty": 7701,
      "Use": 7702,
      "bol": 7703,
      "batter": 7704,
      "breath": 7705,
      "cited": 7706,
      "dry": 7707,
      "loy": 7708,
      "liver": 7709,
      "loud": 7710,
      "liqu": 7711,
      "lobby": 7712,
      "pal": 7713,
      "pump": 7714,
      "pending": 7715,
      "punch": 7716,
      "pushing": 7717,
      "rubble": 7718,
      "sought": 7719,
      "samples": 7720,
      "sorry": 7721,
      "wake": 7722,
      "wages": 7723,
      "##ss": 7724,
      "##haw": 7725,
      "##pro": 7726,
      "##com": 7727,
      "##fers": 7728,
      "##ION": 7729,
      "##ba": 7730,
      "##well": 7731,
      "##ename": 7732,
      "##orse": 7733,
      "##iti": 7734,
      "##itively": 7735,
      "##icing": 7736,
      "##lete": 7737,
      "##ils": 7738,
      "##otal": 7739,
      "##igers": 7740,
      "reward": 7741,
      "stages": 7742,
      "waste": 7743,
      "##agh": 7744,
      "##umark": 7745,
      "shif": 7746,
      "shots": 7747,
      "exempt": 7748,
      "##ifies": 7749,
      "##unn": 7750,
      "##unte": 7751,
      "chlor": 7752,
      "##udd": 7753,
      "##asters": 7754,
      "##ouri": 7755,
      "comprom": 7756,
      "outcome": 7757,
      "##ipl": 7758,
      "enable": 7759,
      "Italy": 7760,
      "offshore": 7761,
      "perp": 7762,
      "units": 7763,
      "disag": 7764,
      "replic": 7765,
      "teacher": 7766,
      "##angers": 7767,
      "covers": 7768,
      "Asia": 7769,
      "studio": 7770,
      "##ologies": 7771,
      "brings": 7772,
      "bridge": 7773,
      "Front": 7774,
      "assass": 7775,
      "dram": 7776,
      "counties": 7777,
      "reporting": 7778,
      "discour": 7779,
      "founded": 7780,
      "Leices": 7781,
      "signing": 7782,
      "Real": 7783,
      "publication": 7784,
      "requests": 7785,
      "fewer": 7786,
      "costumes": 7787,
      "##phy": 7788,
      "greatly": 7789,
      "libert": 7790,
      "artificial": 7791,
      "Administ": 7792,
      "hardware": 7793,
      "careful": 7794,
      "skept": 7795,
      "concrete": 7796,
      "Phot": 7797,
      "protected": 7798,
      "Planned": 7799,
      "busy": 7800,
      "1997": 7801,
      "Griff": 7802,
      "refuge": 7803,
      "technique": 7804,
      "Christopher": 7805,
      "facts": 7806,
      "happening": 7807,
      "Russians": 7808,
      "minds": 7809,
      "occur": 7810,
      "alongside": 7811,
      "allocated": 7812,
      "visible": 7813,
      "Associ": 7814,
      "##isco": 7815,
      "meetings": 7816,
      "variation": 7817,
      "##aska": 7818,
      "##letter": 7819,
      "Parenthood": 7820,
      "immigration": 7821,
      "hopefully": 7822,
      "Afghan": 7823,
      "march": 7824,
      "Neumark": 7825,
      "Missouri": 7826,
      "allegations": 7827,
      "tenure": 7828,
      "honor": 7829,
      "Perhaps": 7830,
      "respectively": 7831,
      "literally": 7832,
      "SpaceX": 7833,
      "miraj": 7834,
      "mixed": 7835,
      "trees": 7836,
      "Robin": 7837,
      "rifles": 7838,
      "scenario": 7839,
      "sudo": 7840,
      "Quebec": 7841,
      "destroyed": 7842,
      "procedure": 7843,
      "baby": 7844,
      "Economic": 7845,
      "channel": 7846,
      "Holly": 7847,
      "democracy": 7848,
      "organizations": 7849,
      "consequences": 7850,
      "retirement": 7851,
      "Revolution": 7852,
      "dedicated": 7853,
      "Pentagon": 7854,
      "ethnic": 7855,
      "Alberta": 7856,
      "equivalent": 7857,
      "dialectical": 7858,
      "Leicester": 7859,
      "69": 7860,
      "73": 7861,
      "87": 7862,
      "Bob": 7863,
      "Cre": 7864,
      "Cav": 7865,
      "Det": 7866,
      "Hack": 7867,
      "Having": 7868,
      "Ian": 7869,
      "IAM": 7870,
      "Iowa": 7871,
      "Jun": 7872,
      "Luke": 7873,
      "Nut": 7874,
      "Nord": 7875,
      "Ott": 7876,
      "Pico": 7877,
      "RC": 7878,
      "RT": 7879,
      "Rice": 7880,
      "TR": 7881,
      "Ter": 7882,
      "Tink": 7883,
      "Vla": 7884,
      "WH": 7885,
      "fol": 7886,
      "fasc": 7887,
      "fiscal": 7888,
      "giant": 7889,
      "gym": 7890,
      "gonna": 7891,
      "hoc": 7892,
      "jun": 7893,
      "lun": 7894,
      "mouth": 7895,
      "nerd": 7896,
      "nobody": 7897,
      "pp": 7898,
      "papers": 7899,
      "rival": 7900,
      "wars": 7901,
      "##uct": 7902,
      "##hed": 7903,
      "##rated": 7904,
      "##va": 7905,
      "##fit": 7906,
      "##gets": 7907,
      "##Tr": 7908,
      "##GB": 7909,
      "##PN": 7910,
      "##WA": 7911,
      "##era": 7912,
      "##inos": 7913,
      "##inating": 7914,
      "##orial": 7915,
      "##areness": 7916,
      "infer": 7917,
      "##asion": 7918,
      "##idency": 7919,
      "##iger": 7920,
      "revel": 7921,
      "##olf": 7922,
      "##chain": 7923,
      "aspect": 7924,
      "alcohol": 7925,
      "##ules": 7926,
      "proof": 7927,
      "prohib": 7928,
      "shield": 7929,
      "frame": 7930,
      "##unes": 7931,
      "##odes": 7932,
      "chart": 7933,
      "deals": 7934,
      "leaves": 7935,
      "compreh": 7936,
      "##ansole": 7937,
      "Inform": 7938,
      "adults": 7939,
      "enorm": 7940,
      "usage": 7941,
      "##raid": 7942,
      "unh": 7943,
      "recall": 7944,
      "Whether": 7945,
      "reporter": 7946,
      "partially": 7947,
      "grip": 7948,
      "strict": 7949,
      "strikes": 7950,
      "consensus": 7951,
      "Trib": 7952,
      "attended": 7953,
      "Sharp": 7954,
      "decline": 7955,
      "amounts": 7956,
      "feat": 7957,
      "teammates": 7958,
      "buff": 7959,
      "bright": 7960,
      "presum": 7961,
      "##yph": 7962,
      "drones": 7963,
      "species": 7964,
      "officially": 7965,
      "handful": 7966,
      "Reich": 7967,
      "extended": 7968,
      "##sport": 7969,
      "corp": 7970,
      "correspond": 7971,
      "depth": 7972,
      "Spain": 7973,
      "Spring": 7974,
      "headphones": 7975,
      "serum": 7976,
      "explains": 7977,
      "##engers": 7978,
      "developer": 7979,
      "demands": 7980,
      "farm": 7981,
      "hardly": 7982,
      "entr": 7983,
      "talks": 7984,
      "Program": 7985,
      "classes": 7986,
      "controls": 7987,
      "1996": 7988,
      "productivity": 7989,
      "arrive": 7990,
      "receiver": 7991,
      "dealing": 7992,
      "versus": 7993,
      "voter": 7994,
      "Expl": 7995,
      "##ournament": 7996,
      "Justin": 7997,
      "discussions": 7998,
      "##ventions": 7999,
      "situations": 8000,
      "improving": 8001,
      "threatened": 8002,
      "shortly": 8003,
      "##ERS": 8004,
      "variables": 8005,
      "Description": 8006,
      "##sylv": 8007,
      "Abd": 8008,
      "magic": 8009,
      "destruction": 8010,
      "convicted": 8011,
      "grounds": 8012,
      "damaged": 8013,
      "printed": 8014,
      "competitive": 8015,
      "Agency": 8016,
      "erase": 8017,
      "1980": 8018,
      "1984": 8019,
      "addressed": 8020,
      "awareness": 8021,
      "Content": 8022,
      "femin": 8023,
      "referendum": 8024,
      "stayed": 8025,
      "attempted": 8026,
      "##anderen": 8027,
      "correlated": 8028,
      "Valley": 8029,
      "merely": 8030,
      "consistently": 8031,
      "rankings": 8032,
      "assistant": 8033,
      "drugs": 8034,
      "contracts": 8035,
      "Topsport": 8036,
      "encourage": 8037,
      "Model": 8038,
      "DCM": 8039,
      "essential": 8040,
      "##break": 8041,
      "somewhere": 8042,
      "incredible": 8043,
      "Community": 8044,
      "Liberals": 8045,
      "Radio": 8046,
      "fifth": 8047,
      "fundamental": 8048,
      "dinner": 8049,
      "ampl": 8050,
      "averaged": 8051,
      "incorpor": 8052,
      "Rushton": 8053,
      "savings": 8054,
      "registered": 8055,
      "discrimination": 8056,
      "punishment": 8057,
      "Braff": 8058,
      "##allel": 8059,
      "Global": 8060,
      "Stephen": 8061,
      "errors": 8062,
      "Pennsylv": 8063,
      "Version": 8064,
      "intellectual": 8065,
      "Coalition": 8066,
      "pedestrian": 8067,
      "History": 8068,
      "advertising": 8069,
      "Vacansole": 8070,
      "Rizzo": 8071,
      "Saxo": 8072,
      "Tinkoff": 8073,
      "Vlaanderen": 8074,
      "Vacansoleil": 8075,
      "(\"": 8076,
      "(“": 8077,
      "91": 8078,
      "AS": 8079,
      "Ale": 8080,
      "Ba": 8081,
      "Bab": 8082,
      "Balt": 8083,
      "Balo": 8084,
      "Bardian": 8085,
      "Code": 8086,
      "Camer": 8087,
      "CSF": 8088,
      "Dar": 8089,
      "Educ": 8090,
      "Festival": 8091,
      "Gra": 8092,
      "Gasser": 8093,
      "IT": 8094,
      "Jr": 8095,
      "Jason": 8096,
      "Judge": 8097,
      "Major": 8098,
      "Nav": 8099,
      "OK": 8100,
      "Others": 8101,
      "Pas": 8102,
      "Sing": 8103,
      "Saud": 8104,
      "Ves": 8105,
      "Vict": 8106,
      "bail": 8107,
      "bacter": 8108,
      "eu": 8109,
      "gardens": 8110,
      "hitting": 8111,
      "jpg": 8112,
      "lights": 8113,
      "lunch": 8114,
      "locked": 8115,
      "mal": 8116,
      "mel": 8117,
      "powers": 8118,
      "rar": 8119,
      "rub": 8120,
      "sending": 8121,
      "tap": 8122,
      "tone": 8123,
      "veter": 8124,
      "wine": 8125,
      "waters": 8126,
      "….": 8127,
      "##_f": 8128,
      "##_string": 8129,
      "##apped": 8130,
      "##tle": 8131,
      "##lib": 8132,
      "##look": 8133,
      "##iate": 8134,
      "##iences": 8135,
      "##cure": 8136,
      "##cope": 8137,
      "##nik": 8138,
      "##vole": 8139,
      "##och": 8140,
      "##game": 8141,
      "##CS": 8142,
      "##17": 8143,
      "##Tunes": 8144,
      "##\\/": 8145,
      "##inity": 8146,
      "##edia": 8147,
      "##edding": 8148,
      "##anj": 8149,
      "inner": 8150,
      "##leans": 8151,
      "##lett": 8152,
      "##otic": 8153,
      "##otten": 8154,
      "##road": 8155,
      "Through": 8156,
      "fort": 8157,
      "stir": 8158,
      "##imore": 8159,
      "##illance": 8160,
      "hab": 8161,
      "##essed": 8162,
      "##ework": 8163,
      "suicide": 8164,
      "cham": 8165,
      "prime": 8166,
      "spark": 8167,
      "2020": 8168,
      "##ours": 8169,
      "comparing": 8170,
      "Inside": 8171,
      "Inox": 8172,
      "Invest": 8173,
      "Story": 8174,
      "clar": 8175,
      "clothing": 8176,
      "##ogue": 8177,
      "##inding": 8178,
      "liked": 8179,
      "perce": 8180,
      "union": 8181,
      "peer": 8182,
      "scared": 8183,
      "partisan": 8184,
      "overt": 8185,
      "##area": 8186,
      "##anging": 8187,
      "Alger": 8188,
      "##awa": 8189,
      "Ask": 8190,
      "mins": 8191,
      "invent": 8192,
      "Young": 8193,
      "##rophy": 8194,
      "phase": 8195,
      "association": 8196,
      "county": 8197,
      "##iversary": 8198,
      "earned": 8199,
      "objects": 8200,
      "perspective": 8201,
      "instr": 8202,
      "worldwide": 8203,
      "finds": 8204,
      "Marine": 8205,
      "extensive": 8206,
      "elig": 8207,
      "infected": 8208,
      "constitution": 8209,
      "metal": 8210,
      "secondary": 8211,
      "listed": 8212,
      "investors": 8213,
      "188": 8214,
      "mainly": 8215,
      "childhood": 8216,
      "passengers": 8217,
      "protests": 8218,
      "builds": 8219,
      "##anny": 8220,
      "letting": 8221,
      "Plan": 8222,
      "1995": 8223,
      "certification": 8224,
      "certifications": 8225,
      "Being": 8226,
      "solo": 8227,
      "Orleans": 8228,
      "managing": 8229,
      "humanity": 8230,
      "measured": 8231,
      "Wascher": 8232,
      "authority": 8233,
      "replacement": 8234,
      "methane": 8235,
      "violent": 8236,
      "accounted": 8237,
      "volcan": 8238,
      "volunte": 8239,
      "stream": 8240,
      "encoun": 8241,
      "Medic": 8242,
      "collection": 8243,
      "deeper": 8244,
      "participation": 8245,
      "executives": 8246,
      "titles": 8247,
      "Enter": 8248,
      "references": 8249,
      "pushed": 8250,
      "satell": 8251,
      "ceiling": 8252,
      "layer": 8253,
      "demonstrated": 8254,
      "##igrant": 8255,
      "Valvole": 8256,
      "tweets": 8257,
      "subsid": 8258,
      "promoting": 8259,
      "##known": 8260,
      "independence": 8261,
      "historical": 8262,
      "installed": 8263,
      "teaching": 8264,
      "talented": 8265,
      "feedback": 8266,
      "Disney": 8267,
      "traits": 8268,
      "NHS": 8269,
      "Services": 8270,
      "Northern": 8271,
      "journalists": 8272,
      "ancest": 8273,
      "enemies": 8274,
      "struggle": 8275,
      "landscape": 8276,
      "##_sort": 8277,
      "##ioxid": 8278,
      "Belgian": 8279,
      "Defense": 8280,
      "surrounding": 8281,
      "ultimately": 8282,
      "McKnight": 8283,
      "Santa": 8284,
      "cycle": 8285,
      "fantastic": 8286,
      "hatred": 8287,
      "linear": 8288,
      "casual": 8289,
      "maximum": 8290,
      "desperate": 8291,
      "Devils": 8292,
      "afraid": 8293,
      "inquiry": 8294,
      "unusual": 8295,
      "Anthony": 8296,
      "beautiful": 8297,
      "intimid": 8298,
      "surgery": 8299,
      "Boston": 8300,
      "enthus": 8301,
      "Griffin": 8302,
      "Hollywood": 8303,
      "folks": 8304,
      "Pennsylvania": 8305,
      "Baltimore": 8306,
      "Baloise": 8307,
      "Bardiani": 8308,
      "bacteria": 8309,
      "Av": 8310,
      "Coll": 8311,
      "Dawn": 8312,
      "FN": 8313,
      "FBI": 8314,
      "Gulf": 8315,
      "HD": 8316,
      "HT": 8317,
      "Harr": 8318,
      "Java": 8319,
      "Kerry": 8320,
      "Lin": 8321,
      "Lotto": 8322,
      "Mason": 8323,
      "Math": 8324,
      "MORE": 8325,
      "Os": 8326,
      "Ruth": 8327,
      "SP": 8328,
      "Sugar": 8329,
      "View": 8330,
      "Way": 8331,
      "bird": 8332,
      "duty": 8333,
      "fault": 8334,
      "gains": 8335,
      "hall": 8336,
      "hook": 8337,
      "kil": 8338,
      "lad": 8339,
      "lying": 8340,
      "math": 8341,
      "native": 8342,
      "pounds": 8343,
      "ru": 8344,
      "rom": 8345,
      "rhet": 8346,
      "sight": 8347,
      "tie": 8348,
      "trem": 8349,
      "wet": 8350,
      "wood": 8351,
      "warr": 8352,
      "##aos": 8353,
      "##rint": 8354,
      "##dr": 8355,
      "##iability": 8356,
      "##ión": 8357,
      "##cat": 8358,
      "##comes": 8359,
      "##mission": 8360,
      "##nam": 8361,
      "##CC": 8362,
      "##ILL": 8363,
      "##AP": 8364,
      "##MP": 8365,
      "##HL": 8366,
      "thrown": 8367,
      "##onst": 8368,
      "##arn": 8369,
      "##anic": 8370,
      "##isol": 8371,
      "##acr": 8372,
      "##idem": 8373,
      "##utions": 8374,
      "stack": 8375,
      "stores": 8376,
      "##imp": 8377,
      "ash": 8378,
      "ally": 8379,
      "concent": 8380,
      "##eman": 8381,
      "proceed": 8382,
      "shipping": 8383,
      "exists": 8384,
      "execution": 8385,
      "##abet": 8386,
      "weigh": 8387,
      "deleg": 8388,
      "prize": 8389,
      "trib": 8390,
      "trillion": 8391,
      "trait": 8392,
      "##ardo": 8393,
      "##ective": 8394,
      "##endar": 8395,
      "##endous": 8396,
      "##ellow": 8397,
      "##ibilities": 8398,
      "leagues": 8399,
      "##ansion": 8400,
      "Store": 8401,
      "neither": 8402,
      "usual": 8403,
      "##ordan": 8404,
      "scope": 8405,
      "scandal": 8406,
      "quant": 8407,
      "grab": 8408,
      "implic": 8409,
      "##onda": 8410,
      "fires": 8411,
      "accus": 8412,
      "relative": 8413,
      "Shield": 8414,
      "amm": 8415,
      "supplies": 8416,
      "defeat": 8417,
      "presidency": 8418,
      "phr": 8419,
      "regen": 8420,
      "##athan": 8421,
      "drag": 8422,
      "##ounced": 8423,
      "monit": 8424,
      "##urric": 8425,
      "Argent": 8426,
      "discover": 8427,
      "realized": 8428,
      "extr": 8429,
      "extension": 8430,
      "testim": 8431,
      "##ashed": 8432,
      "requested": 8433,
      "depos": 8434,
      "depression": 8435,
      "embr": 8436,
      "typename": 8437,
      "openly": 8438,
      "seemingly": 8439,
      "opposition": 8440,
      "anniversary": 8441,
      "##nesses": 8442,
      "prominent": 8443,
      "1990s": 8444,
      "severe": 8445,
      "domains": 8446,
      "Christians": 8447,
      "Club": 8448,
      "Climate": 8449,
      "facilities": 8450,
      "plane": 8451,
      "formation": 8452,
      "employers": 8453,
      "Executive": 8454,
      "organisation": 8455,
      "investigate": 8456,
      "Davies": 8457,
      "presentation": 8458,
      "Coach": 8459,
      "discussing": 8460,
      "superher": 8461,
      "antioxid": 8462,
      "closure": 8463,
      "breaks": 8464,
      "violated": 8465,
      "load": 8466,
      "Does": 8467,
      "scientist": 8468,
      "apart": 8469,
      "networks": 8470,
      "suspect": 8471,
      "computers": 8472,
      "attempting": 8473,
      "targeting": 8474,
      "searching": 8475,
      "Patrick": 8476,
      "##ointment": 8477,
      "experiments": 8478,
      "conversations": 8479,
      "broader": 8480,
      "disappointed": 8481,
      "Browning": 8482,
      "recognize": 8483,
      "psychological": 8484,
      "Novo": 8485,
      "vehicles": 8486,
      "Idlib": 8487,
      "permit": 8488,
      "boyfriend": 8489,
      "nomine": 8490,
      "III": 8491,
      "Road": 8492,
      "humans": 8493,
      "##guard": 8494,
      "trigger": 8495,
      "Bloomgren": 8496,
      "gathered": 8497,
      "##____": 8498,
      "Mountains": 8499,
      "hanging": 8500,
      "route": 8501,
      "Universe": 8502,
      "opponent": 8503,
      "prosecutors": 8504,
      "ESPN": 8505,
      "##burg": 8506,
      "prospects": 8507,
      "sympt": 8508,
      "Batman": 8509,
      "Domain": 8510,
      "Hudgins": 8511,
      "exclusive": 8512,
      "hash_map": 8513,
      "welcome": 8514,
      "Atlantic": 8515,
      "Anton": 8516,
      "substantial": 8517,
      "upgrade": 8518,
      "understood": 8519,
      "repeatedly": 8520,
      "drawn": 8521,
      "cymbals": 8522,
      "narrative": 8523,
      "overwhelming": 8524,
      "convinced": 8525,
      "Lynn": 8526,
      "reputation": 8527,
      "adoption": 8528,
      "complicated": 8529,
      "Football": 8530,
      "overseas": 8531,
      "simultaneously": 8532,
      "M1918A2": 8533,
      "perpet": 8534,
      "Nordisk": 8535,
      "83": 8536,
      "AL": 8537,
      "Action": 8538,
      "AFP": 8539,
      "Bu": 8540,
      "Brew": 8541,
      "Credit": 8542,
      "Ger": 8543,
      "Gid": 8544,
      "Hom": 8545,
      "Have": 8546,
      "Its": 8547,
      "Jost": 8548,
      "Mass": 8549,
      "NO": 8550,
      "NJ": 8551,
      "Nis": 8552,
      "Never": 8553,
      "NOT": 8554,
      "Purch": 8555,
      "Psych": 8556,
      "Rom": 8557,
      "Roman": 8558,
      "Sab": 8559,
      "Ut": 8560,
      "Unt": 8561,
      "Uber": 8562,
      "Vin": 8563,
      "Yank": 8564,
      "bes": 8565,
      "cart": 8566,
      "dates": 8567,
      "fuck": 8568,
      "fishing": 8569,
      "gift": 8570,
      "hacking": 8571,
      "les": 8572,
      "lists": 8573,
      "mo": 8574,
      "mails": 8575,
      "rational": 8576,
      "sister": 8577,
      "sizes": 8578,
      "taste": 8579,
      "venture": 8580,
      "wides": 8581,
      "western": 8582,
      "“[": 8583,
      "##uz": 8584,
      "##ship": 8585,
      "##pass": 8586,
      "##pread": 8587,
      "##ll": 8588,
      "##len": 8589,
      "##oir": 8590,
      "##fire": 8591,
      "##feed": 8592,
      "##gia": 8593,
      "##ker": 8594,
      "##zech": 8595,
      "##erts": 8596,
      "##ini": 8597,
      "##orough": 8598,
      "##aning": 8599,
      "token": 8600,
      "##alia": 8601,
      "input": 8602,
      "##ilton": 8603,
      "##ige": 8604,
      "##iguous": 8605,
      "##urse": 8606,
      "stim": 8607,
      "##erse": 8608,
      "##irm": 8609,
      "##ched": 8610,
      "##theless": 8611,
      "anth": 8612,
      "##illed": 8613,
      "shares": 8614,
      "frag": 8615,
      "noting": 8616,
      "noteb": 8617,
      "##ocent": 8618,
      "##ocator": 8619,
      "##istent": 8620,
      "##isters": 8621,
      "##apse": 8622,
      "spin": 8623,
      "spac": 8624,
      "spawn": 8625,
      "##endment": 8626,
      "leaked": 8627,
      "##ouring": 8628,
      "compat": 8629,
      "compos": 8630,
      "contained": 8631,
      "contribution": 8632,
      "enabled": 8633,
      "##ogy": 8634,
      "unable": 8635,
      "##quarters": 8636,
      "recip": 8637,
      "##iana": 8638,
      "##ensed": 8639,
      "appointed": 8640,
      "overcome": 8641,
      "granted": 8642,
      "grabb": 8643,
      "##inking": 8644,
      "##erves": 8645,
      "intervention": 8646,
      "##ampion": 8647,
      "supplied": 8648,
      "underlying": 8649,
      "wrest": 8650,
      "pointing": 8651,
      "minimal": 8652,
      "defic": 8653,
      ").[": 8654,
      "drunk": 8655,
      "Arsen": 8656,
      "boil": 8657,
      "setup": 8658,
      "realDonald": 8659,
      "serves": 8660,
      "returning": 8661,
      "parallel": 8662,
      "constit": 8663,
      "Industr": 8664,
      "payer": 8665,
      "payments": 8666,
      "pointers": 8667,
      "Pharma": 8668,
      "posts": 8669,
      "##prise": 8670,
      "legacy": 8671,
      "arguing": 8672,
      "importantly": 8673,
      "technological": 8674,
      "healthcare": 8675,
      "lineback": 8676,
      "##strong": 8677,
      "Belisol": 8678,
      "allocate": 8679,
      "projected": 8680,
      "##ijn": 8681,
      "Death": 8682,
      "superior": 8683,
      "tradition": 8684,
      "replacing": 8685,
      "keyboard": 8686,
      "entertainment": 8687,
      "Abb": 8688,
      "Earlier": 8689,
      "diam": 8690,
      "interviews": 8691,
      "answers": 8692,
      "copies": 8693,
      "BARs": 8694,
      "Haitian": 8695,
      "influenced": 8696,
      "regarded": 8697,
      "Market": 8698,
      "connect": 8699,
      "Harb": 8700,
      "admit": 8701,
      "Corps": 8702,
      "consumers": 8703,
      "walked": 8704,
      "motion": 8705,
      "progressive": 8706,
      "gamers": 8707,
      "urged": 8708,
      "terrorists": 8709,
      "contacted": 8710,
      "enjoyed": 8711,
      "purchased": 8712,
      "Browns": 8713,
      "Verified": 8714,
      "templates": 8715,
      "Nova": 8716,
      "();": 8717,
      "##iques": 8718,
      "traum": 8719,
      "Intelligence": 8720,
      "Garmin": 8721,
      "Charles": 8722,
      "scrut": 8723,
      "advocates": 8724,
      "struggling": 8725,
      "categories": 8726,
      "Energy": 8727,
      "Carlton": 8728,
      "sprint": 8729,
      "dissociation": 8730,
      "procedures": 8731,
      "acknowledge": 8732,
      "sanctions": 8733,
      "emotional": 8734,
      "statistical": 8735,
      "angry": 8736,
      "##agram": 8737,
      "Gandhi": 8738,
      "Joseph": 8739,
      "Speaking": 8740,
      "Professor": 8741,
      "okay": 8742,
      "outrage": 8743,
      "Heart": 8744,
      "Armstrong": 8745,
      "Palestinian": 8746,
      "District": 8747,
      "Dublin": 8748,
      "risks": 8749,
      "Houston": 8750,
      "obtained": 8751,
      "##Trump": 8752,
      "Paso": 8753,
      "Saudi": 8754,
      "Vesper": 8755,
      "rarely": 8756,
      "Nisbett": 8757,
      "Purchase": 8758,
      "notebook": 8759,
      "realDonaldTrump": 8760,
      "900": 8761,
      "Ap": 8762,
      "Astr": 8763,
      "CC": 8764,
      "Cat": 8765,
      "Czech": 8766,
      "Dave": 8767,
      "Eastern": 8768,
      "Fact": 8769,
      "Fra": 8770,
      "Ford": 8771,
      "Gh": 8772,
      "GDP": 8773,
      "Had": 8774,
      "Haw": 8775,
      "Jordan": 8776,
      "Komen": 8777,
      "Kiw": 8778,
      "Log": 8779,
      "Lester": 8780,
      "Mo": 8781,
      "Nint": 8782,
      "NBC": 8783,
      "Pix": 8784,
      "RS": 8785,
      "Ron": 8786,
      "Roth": 8787,
      "Raid": 8788,
      "SO": 8789,
      "SD": 8790,
      "Tac": 8791,
      "Urug": 8792,
      "Ult": 8793,
      "Vice": 8794,
      "Vanc": 8795,
      "Wage": 8796,
      "banned": 8797,
      "borders": 8798,
      "cure": 8799,
      "citing": 8800,
      "dance": 8801,
      "diversity": 8802,
      "dreams": 8803,
      "eld": 8804,
      "fears": 8805,
      "fighter": 8806,
      "gro": 8807,
      "gang": 8808,
      "hired": 8809,
      "hij": 8810,
      "icon": 8811,
      "lect": 8812,
      "migrants": 8813,
      "ranks": 8814,
      "rural": 8815,
      "riot": 8816,
      "sorts": 8817,
      "saturated": 8818,
      "tens": 8819,
      "tissue": 8820,
      "wa": 8821,
      "zoo": 8822,
      "##uis": 8823,
      "##uay": 8824,
      "##ses": 8825,
      "##_n": 8826,
      "##apping": 8827,
      "##lan": 8828,
      "##lis": 8829,
      "##rd": 8830,
      "##rum": 8831,
      "##comm": 8832,
      "##met": 8833,
      "##yo": 8834,
      "##found": 8835,
      "##FF": 8836,
      "##SM": 8837,
      "##kward": 8838,
      "##IV": 8839,
      "##burn": 8840,
      "##wan": 8841,
      "##PP": 8842,
      "##HC": 8843,
      "thumb": 8844,
      "##ingers": 8845,
      "##ouver": 8846,
      "##itol": 8847,
      "##itals": 8848,
      "##asab": 8849,
      "##ela": 8850,
      "##elph": 8851,
      "##ilit": 8852,
      "##stal": 8853,
      "##ayed": 8854,
      "Things": 8855,
      "forec": 8856,
      "forests": 8857,
      "begun": 8858,
      "##amm": 8859,
      "##olit": 8860,
      "##olas": 8861,
      "stead": 8862,
      "##season": 8863,
      "##chron": 8864,
      "anonym": 8865,
      "##illiant": 8866,
      "haz": 8867,
      "##ivors": 8868,
      "shop": 8869,
      "excess": 8870,
      "notion": 8871,
      "orient": 8872,
      "##unter": 8873,
      "chest": 8874,
      "chain": 8875,
      "trained": 8876,
      "sport": 8877,
      "##ellor": 8878,
      "canc": 8879,
      "##uez": 8880,
      "ups": 8881,
      "arbit": 8882,
      "ads": 8883,
      "resem": 8884,
      "env": 8885,
      "##iev": 8886,
      "client": 8887,
      "##ogether": 8888,
      "agents": 8889,
      "unn": 8890,
      "evolution": 8891,
      "recovery": 8892,
      "somebody": 8893,
      "quiet": 8894,
      "theme": 8895,
      "grant": 8896,
      "strip": 8897,
      "##angel": 8898,
      "cruc": 8899,
      "Ali": 8900,
      "Alab": 8901,
      "##rup": 8902,
      "Should": 8903,
      "##eys": 8904,
      "acting": 8905,
      "actively": 8906,
      "Unlike": 8907,
      "suppose": 8908,
      "studying": 8909,
      "buck": 8910,
      "belt": 8911,
      "##roph": 8912,
      "##linear": 8913,
      "##linois": 8914,
      "##ussion": 8915,
      "finance": 8916,
      "##venue": 8917,
      "surpl": 8918,
      "ideological": 8919,
      "coron": 8920,
      "requiring": 8921,
      "lawmakers": 8922,
      "transactions": 8923,
      "caps": 8924,
      "##tenance": 8925,
      "lesson": 8926,
      "Scr": 8927,
      "sketch": 8928,
      "mainstream": 8929,
      "posting": 8930,
      "##viously": 8931,
      "letters": 8932,
      "films": 8933,
      "behalf": 8934,
      "Plus": 8935,
      "nonlinear": 8936,
      "Europcar": 8937,
      "programme": 8938,
      "performing": 8939,
      "Allen": 8940,
      "laid": 8941,
      "techniques": 8942,
      "deliber": 8943,
      "organized": 8944,
      "Meh": 8945,
      "investigations": 8946,
      "campaigns": 8947,
      "treaty": 8948,
      "visited": 8949,
      "racing": 8950,
      "joining": 8951,
      "Barry": 8952,
      "reviews": 8953,
      "replied": 8954,
      "circuit": 8955,
      "globe": 8956,
      "coaches": 8957,
      "Early": 8958,
      "Doct": 8959,
      "deeply": 8960,
      "participate": 8961,
      "relationships": 8962,
      "awkward": 8963,
      "suspended": 8964,
      "suffering": 8965,
      "calendar": 8966,
      "Harv": 8967,
      "consumption": 8968,
      "condem": 8969,
      "websites": 8970,
      "priority": 8971,
      "purposes": 8972,
      "Patanj": 8973,
      "normally": 8974,
      "losses": 8975,
      "banking": 8976,
      "urban": 8977,
      "prosecution": 8978,
      "inspiration": 8979,
      "disappear": 8980,
      "achieved": 8981,
      "Mexican": 8982,
      "Indiana": 8983,
      "cabinet": 8984,
      "algorithms": 8985,
      "kicked": 8986,
      "##iciently": 8987,
      "predicted": 8988,
      "Regard": 8989,
      "mountain": 8990,
      "advocate": 8991,
      "tonight": 8992,
      "Capitol": 8993,
      "visitors": 8994,
      "Royal": 8995,
      "dependent": 8996,
      "industries": 8997,
      "Brazau": 8998,
      "superv": 8999,
      "suprem": 9000,
      "Palestine": 9001,
      "accomplish": 9002,
      "wonderful": 9003,
      "dismissed": 9004,
      "fantasy": 9005,
      "maintaining": 9006,
      "professionals": 9007,
      "preparing": 9008,
      "sustainable": 9009,
      "commitment": 9010,
      "compensation": 9011,
      "Continue": 9012,
      "occasionally": 9013,
      "machines": 9014,
      "Download": 9015,
      "Murphy": 9016,
      "isolated": 9017,
      "polymer": 9018,
      "gravity": 9019,
      "##utrition": 9020,
      "surveillance": 9021,
      "territory": 9022,
      "vulnerable": 9023,
      "Illinois": 9024,
      "Taylor": 9025,
      "diverse": 9026,
      "troops": 9027,
      "Uncertainty": 9028,
      "Higgins": 9029,
      "Luther": 9030,
      "symbol": 9031,
      "chlorine": 9032,
      "Information": 9033,
      "enormous": 9034,
      "Argentina": 9035,
      "Gidley": 9036,
      "widespread": 9037,
      "spacecraft": 9038,
      "Arsenal": 9039,
      "Nintendo": 9040,
      "Raiders": 9041,
      "Uruguay": 9042,
      "Vancouver": 9043,
      "Patanjali": 9044,
      "Buff": 9045,
      "Cam": 9046,
      "Click": 9047,
      "DN": 9048,
      "Dig": 9049,
      "Eag": 9050,
      "Ent": 9051,
      "Five": 9052,
      "Food": 9053,
      "Gov": 9054,
      "Glin": 9055,
      "Games": 9056,
      "Garden": 9057,
      "Hung": 9058,
      "Ice": 9059,
      "Kansas": 9060,
      "Lind": 9061,
      "Mort": 9062,
      "Much": 9063,
      "Nich": 9064,
      "PD": 9065,
      "Poly": 9066,
      "Rather": 9067,
      "Rouse": 9068,
      "Rasp": 9069,
      "Six": 9070,
      "SES": 9071,
      "SEC": 9072,
      "TM": 9073,
      "UC": 9074,
      "Uk": 9075,
      "bull": 9076,
      "boring": 9077,
      "dynam": 9078,
      "fab": 9079,
      "flying": 9080,
      "gained": 9081,
      "hidden": 9082,
      "jur": 9083,
      "mile": 9084,
      "pound": 9085,
      "roles": 9086,
      "roster": 9087,
      "ranges": 9088,
      "sq": 9089,
      "sized": 9090,
      "tip": 9091,
      "vet": 9092,
      "};": 9093,
      "##uce": 9094,
      "##hail": 9095,
      "##person": 9096,
      "##ta": 9097,
      "##lights": 9098,
      "##mit": 9099,
      "##mail": 9100,
      "##vin": 9101,
      "##zed": 9102,
      "##backs": 9103,
      "##TR": 9104,
      "##wear": 9105,
      "##64": 9106,
      "##BM": 9107,
      "##MC": 9108,
      "##MB": 9109,
      "##Machine": 9110,
      "##inum": 9111,
      "##enry": 9112,
      "##esy": 9113,
      "##ington": 9114,
      "##itudes": 9115,
      "##icz": 9116,
      "##icts": 9117,
      "##reens": 9118,
      "##lements": 9119,
      "##steps": 9120,
      "##eters": 9121,
      "##ecks": 9122,
      "##idal": 9123,
      "##adelph": 9124,
      "stor": 9125,
      "stup": 9126,
      "##verty": 9127,
      "alert": 9128,
      "habit": 9129,
      "##umber": 9130,
      "prol": 9131,
      "##user": 9132,
      "shall": 9133,
      "fruit": 9134,
      "fracking": 9135,
      "##istol": 9136,
      "champions": 9137,
      "priest": 9138,
      "sequ": 9139,
      "plaus": 9140,
      "202": 9141,
      "containing": 9142,
      "resign": 9143,
      "Stew": 9144,
      "enact": 9145,
      "meat": 9146,
      "##uber": 9147,
      "offence": 9148,
      "perception": 9149,
      "una": 9150,
      "unknown": 9151,
      "recount": 9152,
      "recording": 9153,
      "manip": 9154,
      "quake": 9155,
      "##ferences": 9156,
      "##obb": 9157,
      "##icking": 9158,
      "imposed": 9159,
      "##orship": 9160,
      "firms": 9161,
      "accomm": 9162,
      "criter": 9163,
      "Track": 9164,
      "reliable": 9165,
      "efficiency": 9166,
      "producing": 9167,
      "assigned": 9168,
      "longest": 9169,
      "drivers": 9170,
      "dragon": 9171,
      "Arts": 9172,
      "owns": 9173,
      "guest": 9174,
      "reader": 9175,
      "surrog": 9176,
      "modified": 9177,
      "headquarters": 9178,
      "releases": 9179,
      "capabilities": 9180,
      "##elson": 9181,
      "Blake": 9182,
      "Independ": 9183,
      "180": 9184,
      "Prin": 9185,
      "##ucks": 9186,
      "concert": 9187,
      "breach": 9188,
      "Management": 9189,
      "feelings": 9190,
      "legs": 9191,
      "legend": 9192,
      "##lessness": 9193,
      "controller": 9194,
      "filter": 9195,
      "singer": 9196,
      "restore": 9197,
      "productive": 9198,
      "refact": 9199,
      "##itchen": 9200,
      "poverty": 9201,
      "questioned": 9202,
      "Obam": 9203,
      "airport": 9204,
      "McG": 9205,
      "Myth": 9206,
      "availability": 9207,
      "##ronics": 9208,
      "existed": 9209,
      "multi": 9210,
      "deaths": 9211,
      "Barcel": 9212,
      "##ERT": 9213,
      "blocked": 9214,
      "representative": 9215,
      "educational": 9216,
      "ruled": 9217,
      "divided": 9218,
      "destination": 9219,
      "interviewed": 9220,
      "uncomfort": 9221,
      "compete": 9222,
      "approaches": 9223,
      "billions": 9224,
      "suffer": 9225,
      "automatically": 9226,
      "Harry": 9227,
      "Corp": 9228,
      "tracking": 9229,
      "##ubbed": 9230,
      "Parker": 9231,
      "Record": 9232,
      "bankrupt": 9233,
      "clubs": 9234,
      "reveal": 9235,
      "frequency": 9236,
      "Goodman": 9237,
      "homeless": 9238,
      "exercises": 9239,
      "Greene": 9240,
      "##elescope": 9241,
      "utility": 9242,
      "teachers": 9243,
      "stepped": 9244,
      "opinions": 9245,
      "Following": 9246,
      "##izza": 9247,
      "supposedly": 9248,
      "throwing": 9249,
      "ticket": 9250,
      "Beta": 9251,
      "##equality": 9252,
      "category": 9253,
      "expanded": 9254,
      "Petty": 9255,
      "summary": 9256,
      "Expected": 9257,
      "Philadelph": 9258,
      "bags": 9259,
      "sandbox": 9260,
      "Freedom": 9261,
      "cooking": 9262,
      "motivated": 9263,
      "prosecutor": 9264,
      "Maryland": 9265,
      "sponsored": 9266,
      "Bradley": 9267,
      "restrictions": 9268,
      "Leader": 9269,
      "Copyright": 9270,
      "EventMachine": 9271,
      "electricity": 9272,
      "Mikhail": 9273,
      "camera": 9274,
      "Francisco": 9275,
      "Latin": 9276,
      "##16_t": 9277,
      "deployed": 9278,
      "Academy": 9279,
      "Norman": 9280,
      "Lebanon": 9281,
      "climbing": 9282,
      "genuine": 9283,
      "Education": 9284,
      "kilomet": 9285,
      "nominee": 9286,
      "symptoms": 9287,
      "Until": 9288,
      "Alabama": 9289,
      "surplus": 9290,
      "Harvard": 9291,
      "Gliniew": 9292,
      "Rousey": 9293,
      "accommod": 9294,
      "Barcelona": 9295,
      "uncomfortable": 9296,
      "Philadelphia": 9297,
      "!)": 9298,
      "\"/": 9299,
      "Award": 9300,
      "Bid": 9301,
      "Bru": 9302,
      "CS": 9303,
      "Cab": 9304,
      "Da": 9305,
      "DO": 9306,
      "DL": 9307,
      "Es": 9308,
      "End": 9309,
      "Est": 9310,
      "Father": 9311,
      "Gal": 9312,
      "Ha": 9313,
      "Hab": 9314,
      "Holl": 9315,
      "Hockey": 9316,
      "Jets": 9317,
      "Kel": 9318,
      "Kind": 9319,
      "Line": 9320,
      "Living": 9321,
      "Mill": 9322,
      "Nad": 9323,
      "Near": 9324,
      "Name": 9325,
      "NSF": 9326,
      "OF": 9327,
      "OS": 9328,
      "Opp": 9329,
      "Pub": 9330,
      "Run": 9331,
      "Rasm": 9332,
      "Sr": 9333,
      "Solis": 9334,
      "Toy": 9335,
      "Tories": 9336,
      "Tony": 9337,
      "WAS": 9338,
      "[]": 9339,
      "borrow": 9340,
      "cume": 9341,
      "dies": 9342,
      "egg": 9343,
      "gig": 9344,
      "gate": 9345,
      "hide": 9346,
      "hire": 9347,
      "hung": 9348,
      "iTunes": 9349,
      "lapt": 9350,
      "mm": 9351,
      "mand": 9352,
      "ocean": 9353,
      "rating": 9354,
      "rug": 9355,
      "tab": 9356,
      "torn": 9357,
      "vac": 9358,
      "##har": 9359,
      "##hab": 9360,
      "##eff": 9361,
      "##lah": 9362,
      "##0p": 9363,
      "##rine": 9364,
      "##die": 9365,
      "##mans": 9366,
[...]
